<unk>	0
<s>	0
</s>	0
an	-0
ak	-1
▁t	-2
▁m	-3
▁s	-4
er	-5
▁k	-6
▁b	-7
▁d	-8
en	-9
in	-10
ah	-11
ang	-12
ar	-13
ya	-14
▁p	-15
am	-16
at	-17
▁ak	-18
al	-19
▁di	-20
▁to	-21
ap	-22
em	-23
▁tom	-24
▁men	-25
uk	-26
un	-27
▁aku	-28
el	-29
▁ti	-30
it	-31
▁se	-32
dak	-33
▁tidak	-34
as	-35
ad	-36
▁ber	-37
▁in	-38
▁kam	-39
ik	-40
▁l	-41
▁sa	-42
apa	-43
▁mem	-44
▁y	-45
▁h	-46
is	-47
▁yang	-48
nya	-49
itu	-50
▁saya	-51
▁ke	-52
▁kamu	-53
▁itu	-54
▁per	-55
▁ini	-56
▁dia	-57
ih	-58
us	-59
ing	-60
▁ter	-61
ada	-62
kan	-63
gi	-64
▁j	-65
um	-66
au	-67
ur	-68
▁meng	-69
il	-70
ari	-71
▁apa	-72
eng	-73
or	-74
▁memb	-75
akan	-76
ir	-77
on	-78
ul	-79
ukan	-80
▁akan	-81
▁r	-82
ek	-83
ut	-84
alah	-85
ai	-86
ung	-87
mu	-88
ud	-89
▁an	-90
▁mel	-91
▁tah	-92
▁bis	-93
▁deng	-94
▁dengan	-95
anya	-96
▁ada	-97
orang	-98
ku	-99
▁bisa	-100
▁ap	-101
ana	-102
▁ing	-103
eb	-104
akah	-105
▁mer	-106
▁c	-107
da	-108
unt	-109
ol	-110
▁ba	-111
ita	-112
es	-113
ti	-114
ja	-115
ali	-116
uka	-117
unya	-118
▁mar	-119
ga	-120
▁unt	-121
▁untuk	-122
uh	-123
angan	-124
▁ingin	-125
et	-126
▁kita	-127
▁har	-128
▁tahu	-129
▁apakah	-130
akukan	-131
▁kami	-132
▁pergi	-133
▁ad	-134
▁kau	-135
▁mary	-136
alam	-137
asa	-138
ua	-139
ihat	-140
udah	-141
▁sem	-142
up	-143
ok	-144
▁dari	-145
▁adalah	-146
▁n	-147
▁a	-148
▁seb	-149
ep	-150
ama	-151
▁anda	-152
ara	-153
▁sudah	-154
▁sed	-155
▁g	-156
ant	-157
▁suka	-158
▁bah	-159
ob	-160
▁sek	-161
▁harus	-162
▁makan	-163
▁dan	-164
ikan	-165
▁sep	-166
wa	-167
▁si	-168
▁mas	-169
adi	-170
alu	-171
uat	-172
ong	-173
▁bel	-174
ingg	-175
inya	-176
▁orang	-177
angat	-178
▁la	-179
▁leb	-180
▁lebih	-181
▁punya	-182
▁meny	-183
eka	-184
▁sangat	-185
▁melakukan	-186
ia	-187
▁sedang	-188
int	-189
▁kem	-190
▁terl	-191
any	-192
▁sel	-193
▁mereka	-194
ma	-195
ent	-196
▁mana	-197
elah	-198
▁rum	-199
ini	-200
amp	-201
inggal	-202
enar	-203
ot	-204
▁rumah	-205
▁sini	-206
uku	-207
end	-208
ca	-209
▁dalam	-210
▁berb	-211
anyak	-212
▁menc	-213
▁pada	-214
▁pern	-215
▁melihat	-216
▁banyak	-217
▁hari	-218
▁bert	-219
eh	-220
▁pernah	-221
amb	-222
jadi	-223
aj	-224
▁bukan	-225
▁w	-226
lah	-227
▁jangan	-228
▁lagi	-229
os	-230
ab	-231
▁semua	-232
eri	-233
annya	-234
▁bers	-235
id	-236
uj	-237
erja	-238
apat	-239
▁seorang	-240
ati	-241
▁kali	-242
ika	-243
▁tahun	-244
▁pa	-245
▁siapa	-246
▁mau	-247
▁mend	-248
▁bahasa	-249
enang	-250
▁ses	-251
▁tem	-252
cara	-253
ikir	-254
arang	-255
obil	-256
▁mobil	-257
▁hal	-258
▁masih	-259
asi	-260
▁pr	-261
▁bag	-262
ekerja	-263
iri	-264
▁anak	-265
▁telah	-266
erti	-267
ilik	-268
atu	-269
▁at	-270
apan	-271
ba	-272
kat	-273
▁kel	-274
oh	-275
uah	-276
uar	-277
ungk	-278
▁baik	-279
▁buku	-280
▁benar	-281
▁kep	-282
▁ker	-283
▁belum	-284
atang	-285
▁tinggal	-286
▁kal	-287
▁saja	-288
ib	-289
uc	-290
oleh	-291
ajar	-292
uang	-293
▁berapa	-294
tr	-295
ungkin	-296
anc	-297
and	-298
per	-299
eg	-300
ungg	-301
long	-302
▁bes	-303
akt	-304
▁bi	-305
▁tiga	-306
▁pen	-307
▁memba	-308
▁tolong	-309
ton	-310
▁ken	-311
amu	-312
dur	-313
▁kalau	-314
▁datang	-315
▁bar	-316
▁wakt	-317
alan	-318
mana	-319
▁berh	-320
im	-321
▁membel	-322
▁pul	-323
▁f	-324
▁sebuah	-325
▁mungkin	-326
uatu	-327
▁satu	-328
angg	-329
main	-330
iku	-331
lu	-332
aku	-333
emb	-334
▁ay	-335
▁kec	-336
▁send	-337
▁membuat	-338
om	-339
inum	-340
▁terb	-341
▁bahwa	-342
▁seperti	-343
▁sekarang	-344
ulai	-345
▁tak	-346
▁sesuatu	-347
▁bos	-348
▁waktu	-349
▁sendiri	-350
si	-351
aki	-352
▁terlalu	-353
antu	-354
iliki	-355
▁kalian	-356
▁member	-357
ub	-358
▁tidur	-359
▁tent	-360
▁mengh	-361
▁perlu	-362
▁membeli	-363
inta	-364
▁kes	-365
arkan	-366
▁memiliki	-367
aw	-368
kah	-369
icara	-370
▁kemb	-371
atakan	-372
▁bagai	-373
▁pikir	-374
akit	-375
▁bermain	-376
▁menjadi	-377
emu	-378
▁jam	-379
▁ket	-380
▁baru	-381
▁lakukan	-382
▁salah	-383
▁bagaimana	-384
▁berbicara	-385
epat	-386
anj	-387
▁dir	-388
op	-389
pat	-390
anmu	-391
olah	-392
▁uang	-393
▁boleh	-394
▁minum	-395
unggu	-396
idup	-397
▁mus	-398
utuh	-399
▁kot	-400
▁ayah	-401
▁hanya	-402
▁malam	-403
▁belajar	-404
isi	-405
ahu	-406
hir	-407
uga	-408
aran	-409
▁seh	-410
▁tentang	-411
▁terjadi	-412
▁kar	-413
ancis	-414
▁kenapa	-415
▁sekali	-416
api	-417
▁keb	-418
ilang	-419
▁mulai	-420
▁boston	-421
▁kembali	-422
▁ser	-423
▁samp	-424
▁bekerja	-425
▁terlihat	-426
caya	-427
erapa	-428
▁dapat	-429
▁selalu	-430
af	-431
▁juga	-432
▁mari	-433
▁kapan	-434
▁memper	-435
▁masalah	-436
▁ia	-437
arin	-438
▁lalu	-439
▁pint	-440
▁sakit	-441
▁prancis	-442
▁melakukannya	-443
▁ib	-444
▁ma	-445
▁mat	-446
▁sana	-447
▁set	-448
▁tel	-449
▁atas	-450
▁saat	-451
▁kemarin	-452
▁membaca	-453
akin	-454
▁bang	-455
▁pert	-456
▁tet	-457
▁hidup	-458
▁bertemu	-459
asih	-460
ulis	-461
▁beb	-462
▁tert	-463
▁keluar	-464
▁mendeng	-465
ena	-466
oba	-467
uduk	-468
▁air	-469
ima	-470
▁pad	-471
▁sama	-472
▁meninggal	-473
ci	-474
▁ters	-475
ed	-476
ju	-477
angk	-478
daku	-479
▁dib	-480
▁teman	-481
gr	-482
ind	-483
pada	-484
▁kuc	-485
▁pun	-486
▁seti	-487
▁duduk	-488
▁daripada	-489
baik	-490
▁lama	-491
▁terk	-492
▁kucing	-493
▁pekerja	-494
▁sekolah	-495
▁menunggu	-496
▁mengg	-497
▁sebel	-498
▁sampai	-499
▁setiap	-500
▁tangan	-501
okt	-502
▁cuk	-503
▁kan	-504
ag	-505
era	-506
▁dep	-507
uanya	-508
▁berp	-509
▁kamar	-510
▁merasa	-511
▁sebelum	-512
▁beberapa	-513
aan	-514
umu	-515
uru	-516
▁dua	-517
ambil	-518
▁karena	-519
▁pulang	-520
emukan	-521
▁kasih	-522
▁"	-523
▁keh	-524
▁pas	-525
▁jika	-526
▁besok	-527
▁menang	-528
awa	-529
eda	-530
ian	-531
▁me	-532
amat	-533
kata	-534
▁mengapa	-535
ulan	-536
usnya	-537
▁besar	-538
▁bilang	-539
▁membantu	-540
enti	-541
jing	-542
▁huj	-543
▁lup	-544
ew	-545
▁pan	-546
benar	-547
▁diri	-548
▁depan	-549
▁anjing	-550
▁memberit	-551
ac	-552
▁as	-553
akai	-554
uran	-555
▁berj	-556
▁cukup	-557
▁yakin	-558
▁bisakah	-559
na	-560
uan	-561
unj	-562
atan	-563
▁kota	-564
▁lain	-565
▁pagi	-566
▁kepada	-567
▁selama	-568
▁senang	-569
uda	-570
▁pem	-571
▁sur	-572
aling	-573
▁mati	-574
▁berhenti	-575
alia	-576
utup	-577
▁keret	-578
emp	-579
esa	-580
gris	-581
ukul	-582
▁pes	-583
▁berd	-584
▁jalan	-585
▁inggris	-586
▁menemukan	-587
unia	-588
unuh	-589
inggu	-590
ingin	-591
▁kecil	-592
▁panas	-593
▁tempat	-594
car	-595
arah	-596
epon	-597
▁dit	-598
▁tan	-599
angkat	-600
▁dunia	-601
▁sering	-602
▁katakan	-603
jam	-604
okok	-605
urun	-606
ustr	-607
▁jep	-608
inggi	-609
▁peng	-610
uangan	-611
▁berada	-612
▁jepang	-613
▁padaku	-614
▁berkata	-615
▁mencoba	-616
aik	-617
auh	-618
aya	-619
▁is	-620
awat	-621
unakan	-622
▁sehar	-623
utuhkan	-624
▁terima	-625
▁ruangan	-626
od	-627
▁kur	-628
ahkan	-629
ambat	-630
▁cepat	-631
▁berenang	-632
▁semuanya	-633
uju	-634
ulu	-635
ekor	-636
▁ked	-637
▁pel	-638
▁seg	-639
▁sen	-640
▁tua	-641
akhir	-642
antai	-643
tinya	-644
▁laki	-645
▁meja	-646
▁austr	-647
▁hujan	-648
▁australia	-649
▁en	-650
▁st	-651
arik	-652
enal	-653
ukai	-654
usah	-655
▁kak	-656
ampir	-657
ohong	-658
▁berk	-659
▁lupa	-660
▁pukul	-661
▁takut	-662
▁ketika	-663
▁memberi	-664
▁seharusnya	-665
gil	-666
apun	-667
ikut	-668
ulit	-669
▁neg	-670
▁angg	-671
▁bangun	-672
▁mendengar	-673
▁2	-674
abis	-675
anak	-676
▁dim	-677
▁lap	-678
▁berl	-679
▁luar	-680
▁bulan	-681
▁masuk	-682
▁makanan	-683
▁merokok	-684
▁percaya	-685
ikit	-686
▁baw	-687
▁beg	-688
▁surat	-689
▁menulis	-690
▁sedikit	-691
buk	-692
ahui	-693
okter	-694
ulang	-695
▁bagus	-696
▁menya	-697
▁bur	-698
▁cer	-699
▁atau	-700
▁guru	-701
▁maaf	-702
anjang	-703
▁pekerjaan	-704
ec	-705
▁1	-706
usia	-707
asiun	-708
▁tadi	-709
asanya	-710
▁harap	-711
▁milik	-712
▁pintu	-713
▁hampir	-714
▁menyel	-715
▁minggu	-716
▁padamu	-717
▁stasiun	-718
▁mengatakan	-719
agi	-720
ata	-721
enc	-722
atuh	-723
awab	-724
elas	-725
▁kon	-726
▁sej	-727
▁jawab	-728
▁merah	-729
▁dokter	-730
▁tetapi	-731
▁ga	-732
anku	-733
ikah	-734
erima	-735
▁siang	-736
▁sibuk	-737
▁begitu	-738
▁kereta	-739
▁bersama	-740
▁menangis	-741
sa	-742
ta	-743
arna	-744
iswa	-745
ubah	-746
▁kop	-747
▁man	-748
▁cara	-749
▁jauh	-750
▁pend	-751
▁peremp	-752
▁denganmu	-753
▁memberitah	-754
pa	-755
uri	-756
ebut	-757
▁istr	-758
▁siap	-759
▁seper	-760
esaikan	-761
▁membutuhkan	-762
ekat	-763
utus	-764
▁gun	-765
▁tok	-766
entar	-767
▁nama	-768
▁pasti	-769
▁tepat	-770
▁sepeda	-771
▁terlambat	-772
▁sepertinya	-773
ej	-774
▁ya	-775
aman	-776
itar	-777
▁ben	-778
▁dis	-779
▁nam	-780
antik	-781
injam	-782
▁berg	-783
▁rasa	-784
▁sese	-785
▁akhir	-786
▁bawah	-787
▁lihat	-788
▁musim	-789
▁turun	-790
▁menget	-791
▁paling	-792
▁seekor	-793
▁mencari	-794
▁seseorang	-795
ay	-796
▁ag	-797
▁al	-798
asil	-799
ungi	-800
▁apel	-801
▁berc	-802
▁dulu	-803
▁muda	-804
▁tiba	-805
enting	-806
▁butuh	-807
▁berbah	-808
▁tinggi	-809
▁berpikir	-810
▁mendapat	-811
▁mengambil	-812
▁perempuan	-813
ra	-814
ilm	-815
imp	-816
bang	-817
ilih	-818
▁dil	-819
▁adik	-820
▁oleh	-821
▁bantu	-822
▁keras	-823
▁marah	-824
▁musik	-825
▁berikan	-826
▁penting	-827
▁selamat	-828
▁berbohong	-829
ain	-830
ira	-831
wal	-832
▁ku	-833
utmu	-834
▁dip	-835
▁mah	-836
onton	-837
ukkan	-838
▁anggur	-839
▁apapun	-840
▁gunung	-841
▁bersalah	-842
▁menyukai	-843
ev	-844
aham	-845
anda	-846
enis	-847
laki	-848
ohon	-849
▁put	-850
▁kopi	-851
▁lapar	-852
▁mengerti	-853
▁sebentar	-854
uny	-855
anti	-856
▁bir	-857
▁mur	-858
ingat	-859
▁film	-860
▁pacar	-861
▁dingin	-862
▁menikah	-863
▁bolehkah	-864
▁tersebut	-865
▁menggunakan	-866
omp	-867
▁ind	-868
▁bagi	-869
▁ingat	-870
▁memer	-871
▁menur	-872
▁terus	-873
ilangan	-874
▁segera	-875
▁setuju	-876
▁kesalah	-877
▁setelah	-878
▁biasanya	-879
▁sil	-880
▁sus	-881
kanmu	-882
▁sung	-883
kannya	-884
▁sulit	-885
▁ulang	-886
▁memakai	-887
▁berjalan	-888
▁menonton	-889
▁terakhir	-890
▁kehilangan	-891
▁menyelesaikan	-892
▁v	-893
aks	-894
▁um	-895
▁ibu	-896
▁kul	-897
▁nya	-898
▁pis	-899
▁sar	-900
akaan	-901
▁kant	-902
▁perm	-903
▁ramb	-904
▁dekat	-905
▁memas	-906
▁cantik	-907
▁meminta	-908
▁bertanya	-909
imu	-910
orm	-911
yar	-912
ampu	-913
unga	-914
▁kab	-915
▁ikan	-916
▁jadi	-917
▁pria	-918
ingung	-919
▁cinta	-920
▁menel	-921
▁mengi	-922
▁menit	-923
▁menol	-924
▁tetap	-925
▁ayahku	-926
▁sungai	-927
▁bercanda	-928
▁membunuh	-929
▁mendengarkan	-930
ala	-931
ola	-932
▁kr	-933
ahir	-934
esai	-935
yang	-936
▁gar	-937
▁kun	-938
▁sal	-939
otong	-940
▁bern	-941
▁lang	-942
▁menj	-943
atunya	-944
encana	-945
▁puluh	-946
▁rapat	-947
▁siswa	-948
unjukkan	-949
▁silakan	-950
▁telepon	-951
▁pertanya	-952
."	-953
erj	-954
agia	-955
jual	-956
▁pol	-957
ganya	-958
hawat	-959
usaha	-960
▁awal	-961
▁tapi	-962
▁toko	-963
▁berat	-964
▁kakak	-965
▁kelas	-966
▁putih	-967
hawatir	-968
satunya	-969
▁lantai	-970
▁menyeb	-971
▁menyer	-972
▁bahagia	-973
▁padanya	-974
▁selesai	-975
▁dengannya	-976
00	-977
ip	-978
pur	-979
tem	-980
▁am	-981
▁so	-982
gila	-983
uluh	-984
▁enam	-985
▁kata	-986
▁lahir	-987
▁nanti	-988
▁tanpa	-989
▁tutup	-990
▁mengen	-991
▁membant	-992
▁pertama	-993
▁rumahku	-994
▁sepuluh	-995
▁pintunya	-996
▁berangkat	-997
▁menelepon	-998
▁melihatnya	-999
▁sebelumnya	-1000
▁em	-1001
▁su	-1002
etak	-1003
odoh	-1004
erika	-1005
▁hati	-1006
▁kira	-1007
▁pemb	-1008
▁bunga	-1009
▁diper	-1010
▁membi	-1011
▁pakai	-1012
▁pohon	-1013
▁sebaik	-1014
▁amerika	-1015
▁memakan	-1016
▁menarik	-1017
▁memberikan	-1018
ug	-1019
uci	-1020
uli	-1021
abuk	-1022
emat	-1023
utan	-1024
▁hit	-1025
kanku	-1026
▁aneh	-1027
▁buah	-1028
▁keti	-1029
▁memp	-1030
▁seri	-1031
▁buruk	-1032
▁indah	-1033
▁lelah	-1034
▁mudah	-1035
abiskan	-1036
enarnya	-1037
▁negeri	-1038
▁mencuri	-1039
▁berusaha	-1040
▁menerima	-1041
▁mengajar	-1042
▁tertarik	-1043
▁membuatku	-1044
▁sebaiknya	-1045
▁sendirian	-1046
▁mengetahui	-1047
▁sebenarnya	-1048
iz	-1049
ide	-1050
ket	-1051
▁ar	-1052
▁gi	-1053
ober	-1054
▁ped	-1055
angga	-1056
anjut	-1057
intas	-1058
udara	-1059
▁gila	-1060
▁radi	-1061
▁susu	-1062
▁terh	-1063
▁ibuku	-1064
▁jatuh	-1065
▁kotak	-1066
▁memang	-1067
▁berteri	-1068
▁berubah	-1069
▁menurutmu	-1070
▁pertanyaan	-1071
ov	-1072
udi	-1073
▁20	-1074
▁ng	-1075
anyi	-1076
asan	-1077
ekan	-1078
ilah	-1079
▁buk	-1080
▁hot	-1081
▁kos	-1082
▁okt	-1083
adang	-1084
ingga	-1085
warna	-1086
▁mand	-1087
▁nasi	-1088
elapan	-1089
▁ambil	-1090
▁benci	-1091
▁kabar	-1092
▁mabuk	-1093
▁mahal	-1094
▁menja	-1095
▁radio	-1096
▁senin	-1097
▁tenis	-1098
▁tulis	-1099
▁rambut	-1100
▁namanya	-1101
▁oktober	-1102
▁sekitar	-1103
▁berwarna	-1104
▁mengenal	-1105
▁mobilnya	-1106
▁berteriak	-1107
▁mengingat	-1108
▁mempercaya	-1109
▁meninggalkan	-1110
aja	-1111
ium	-1112
tas	-1113
usi	-1114
▁es	-1115
engk	-1116
epas	-1117
iasa	-1118
oran	-1119
▁bad	-1120
angka	-1121
jalan	-1122
mbang	-1123
▁alam	-1124
▁enak	-1125
▁naik	-1126
alikan	-1127
embuny	-1128
▁kecel	-1129
▁pesta	-1130
▁salju	-1131
▁telev	-1132
▁bicara	-1133
▁kantor	-1134
▁polisi	-1135
▁sehari	-1136
▁tunggu	-1137
▁berhasil	-1138
▁berbahasa	-1139
▁kesalahan	-1140
▁kecelakaan	-1141
▁mengenakan	-1142
▁mendapatkan	-1143
▁menghabiskan	-1144
abr	-1145
ani	-1146
eny	-1147
oto	-1148
pun	-1149
und	-1150
uta	-1151
ahan	-1152
asia	-1153
ukis	-1154
apkan	-1155
endel	-1156
erang	-1157
▁agak	-1158
▁baca	-1159
▁beli	-1160
▁ikut	-1161
▁semb	-1162
▁situ	-1163
aranya	-1164
asaran	-1165
atikan	-1166
▁bodoh	-1167
▁hotel	-1168
▁keber	-1169
▁kepad	-1170
▁minta	-1171
▁berdua	-1172
▁jendel	-1173
▁kanada	-1174
▁kosong	-1175
▁berlari	-1176
▁biarkan	-1177
▁terbaik	-1178
▁meminjam	-1179
▁terkenal	-1180
▁sepanjang	-1181
▁memberitahu	-1182
eks	-1183
▁ka	-1184
▁ko	-1185
▁ro	-1186
▁tu	-1187
atur	-1188
ejut	-1189
hati	-1190
uruh	-1191
▁cua	-1192
▁dih	-1193
▁pet	-1194
▁rah	-1195
▁tas	-1196
▁top	-1197
baiki	-1198
ihkan	-1199
yanyi	-1200
▁bola	-1201
▁mata	-1202
▁terd	-1203
▁terj	-1204
alanya	-1205
▁hitam	-1206
▁kedua	-1207
▁kursi	-1208
▁murah	-1209
▁tahan	-1210
▁tangg	-1211
utuskan	-1212
▁burung	-1213
▁hingga	-1214
▁mengel	-1215
▁secara	-1216
▁sepatu	-1217
▁dirinya	-1218
▁manusia	-1219
▁pelajar	-1220
▁semalam	-1221
▁membayar	-1222
▁memberitahuku	-1223
av	-1224
tu	-1225
ank	-1226
tik	-1227
ump	-1228
wab	-1229
▁tv	-1230
▁wa	-1231
acet	-1232
adap	-1233
agai	-1234
alas	-1235
orit	-1236
▁ayo	-1237
▁bon	-1238
▁bus	-1239
▁dar	-1240
▁dol	-1241
▁jer	-1242
▁nov	-1243
▁rus	-1244
▁biru	-1245
▁buka	-1246
▁pers	-1247
upakan	-1248
▁mampu	-1249
▁warna	-1250
carakan	-1251
▁barang	-1252
▁berhar	-1253
▁itulah	-1254
▁kertas	-1255
▁langit	-1256
▁negara	-1257
▁serius	-1258
▁dimulai	-1259
▁kemacet	-1260
▁membuka	-1261
▁menjual	-1262
▁terbuat	-1263
▁tertawa	-1264
▁inginkan	-1265
▁pendapat	-1266
▁televisi	-1267
▁menunjukkan	-1268
30	-1269
ewa	-1270
las	-1271
ohn	-1272
tah	-1273
akar	-1274
awar	-1275
inan	-1276
▁bas	-1277
▁bay	-1278
▁cin	-1279
▁dag	-1280
▁dik	-1281
▁gad	-1282
▁kup	-1283
▁lib	-1284
▁mes	-1285
▁par	-1286
▁teh	-1287
▁tim	-1288
ambar	-1289
ampak	-1290
ancar	-1291
emudi	-1292
▁band	-1293
▁berm	-1294
▁john	-1295
▁kaki	-1296
▁kuat	-1297
▁lima	-1298
▁pand	-1299
▁para	-1300
▁pian	-1301
intang	-1302
undang	-1303
▁belas	-1304
▁istri	-1305
▁memel	-1306
anyakan	-1307
arankan	-1308
ematika	-1309
▁bahkan	-1310
▁mengec	-1311
▁menyad	-1312
▁pinjam	-1313
▁saling	-1314
▁jawaban	-1315
▁memaham	-1316
▁memasak	-1317
▁mengunj	-1318
▁menyuka	-1319
▁pesawat	-1320
▁sarapan	-1321
▁sebelah	-1322
▁akhirnya	-1323
▁denganku	-1324
▁harganya	-1325
▁khawatir	-1326
▁terbiasa	-1327
▁kemacetan	-1328
▁penasaran	-1329
▁matematika	-1330
▁memutuskan	-1331
?"	-1332
fa	-1333
esi	-1334
jah	-1335
lak	-1336
uma	-1337
unci	-1338
▁dig	-1339
▁fav	-1340
▁gel	-1341
▁hob	-1342
▁ide	-1343
▁jum	-1344
▁kac	-1345
▁tep	-1346
▁tuj	-1347
ajari	-1348
aksud	-1349
engah	-1350
engar	-1351
▁arah	-1352
▁beri	-1353
▁coba	-1354
▁komp	-1355
▁terg	-1356
anding	-1357
asinya	-1358
▁biasa	-1359
▁danau	-1360
▁darah	-1361
▁dolar	-1362
▁gadis	-1363
▁jelas	-1364
▁keada	-1365
▁kerja	-1366
▁novel	-1367
▁piano	-1368
▁pilih	-1369
▁sejak	-1370
▁taman	-1371
erjakan	-1372
▁daging	-1373
▁ibunya	-1374
▁kesuka	-1375
▁peduli	-1376
▁ayahnya	-1377
▁bantuan	-1378
▁berdiri	-1379
▁delapan	-1380
▁favorit	-1381
▁menungg	-1382
▁mobilku	-1383
▁rahasia	-1384
▁kepadamu	-1385
▁ketimbang	-1386
ea	-1387
ij	-1388
kus	-1389
mat	-1390
ula	-1391
alik	-1392
ukah	-1393
yung	-1394
▁lel	-1395
enyum	-1396
lakan	-1397
purna	-1398
▁cuma	-1399
▁masa	-1400
▁roti	-1401
abisan	-1402
alaman	-1403
angkap	-1404
▁gitar	-1405
▁harga	-1406
▁lepas	-1407
▁mandi	-1408
▁paham	-1409
▁pisau	-1410
▁terti	-1411
entikan	-1412
▁lintas	-1413
▁mengin	-1414
▁sayang	-1415
enangkan	-1416
▁bintang	-1417
▁keputus	-1418
▁ketahui	-1419
▁membawa	-1420
▁memilih	-1421
▁mencium	-1422
▁menolak	-1423
▁menurun	-1424
▁saudara	-1425
▁sebagai	-1426
▁tanggal	-1427
▁mengikut	-1428
▁menjawab	-1429
▁menyerah	-1430
▁rumahnya	-1431
▁sempurna	-1432
▁terkejut	-1433
▁dilakukan	-1434
▁kehabisan	-1435
▁membuatmu	-1436
▁menyadari	-1437
▁tersenyum	-1438
▁mengunjungi	-1439
▁menyeberang	-1440
▁menyukainya	-1441
gu	-1442
est	-1443
ons	-1444
tar	-1445
umb	-1446
umi	-1447
▁er	-1448
anji	-1449
ayan	-1450
engg	-1451
enuh	-1452
ergi	-1453
impi	-1454
uhan	-1455
uter	-1456
▁api	-1457
▁dic	-1458
▁dij	-1459
▁ger	-1460
▁had	-1461
▁wan	-1462
dakan	-1463
entuh	-1464
▁agar	-1465
▁bank	-1466
▁buta	-1467
▁lagu	-1468
▁terp	-1469
▁umum	-1470
▁umur	-1471
asakan	-1472
untung	-1473
▁bunuh	-1474
▁sedih	-1475
▁sehat	-1476
▁sepak	-1477
▁taksi	-1478
▁tuaku	-1479
▁adikku	-1480
▁airnya	-1481
▁hangat	-1482
▁kamera	-1483
▁kecewa	-1484
▁kepala	-1485
▁kurang	-1486
▁wanita	-1487
ingungan	-1488
▁keadaan	-1489
▁kelihat	-1490
▁menutup	-1491
▁panjang	-1492
▁temanku	-1493
▁terbuka	-1494
▁terluka	-1495
▁bukanlah	-1496
▁komputer	-1497
▁pikirkan	-1498
▁terhadap	-1499
▁tertidur	-1500
▁berencana	-1501
▁kulakukan	-1502
▁kebingungan	-1503
▁mengerjakan	-1504
3.	-1505
aba	-1506
aka	-1507
bol	-1508
ist	-1509
ond	-1510
opa	-1511
sil	-1512
apur	-1513
ebak	-1514
eksi	-1515
esar	-1516
eter	-1517
itas	-1518
onom	-1519
sama	-1520
ugas	-1521
ukur	-1522
▁bot	-1523
▁kol	-1524
▁pro	-1525
▁sab	-1526
▁tau	-1527
alkan	-1528
embak	-1529
indah	-1530
▁diba	-1531
▁emas	-1532
▁krim	-1533
▁malu	-1534
▁nyam	-1535
▁penj	-1536
▁peny	-1537
▁perb	-1538
▁soal	-1539
ainkan	-1540
amanya	-1541
▁beras	-1542
▁eropa	-1543
▁kamus	-1544
▁telur	-1545
▁tujuh	-1546
▁dirimu	-1547
▁menuju	-1548
▁merind	-1549
▁pantai	-1550
▁payung	-1551
▁pensil	-1552
▁berbeda	-1553
▁memeluk	-1554
▁mencuci	-1555
▁mengant	-1556
▁mengend	-1557
▁minuman	-1558
▁permisi	-1559
▁semakin	-1560
▁bukankah	-1561
▁mencinta	-1562
▁menginap	-1563
▁menolong	-1564
▁tanganmu	-1565
▁waktunya	-1566
▁berbahaya	-1567
▁bernyanyi	-1568
▁kemungkin	-1569
▁keretanya	-1570
▁melihatmu	-1571
▁membiarkan	-1572
la	-1573
oc	-1574
aaf	-1575
ern	-1576
git	-1577
ikm	-1578
ucu	-1579
uni	-1580
▁sw	-1581
▁ut	-1582
atif	-1583
esan	-1584
ikat	-1585
omor	-1586
uali	-1587
ukum	-1588
▁ant	-1589
▁gag	-1590
▁jus	-1591
▁war	-1592
adaku	-1593
amaku	-1594
angun	-1595
cinya	-1596
empat	-1597
erita	-1598
intai	-1599
lihat	-1600
ujian	-1601
▁buat	-1602
▁bumi	-1603
▁kaya	-1604
▁kons	-1605
▁kuda	-1606
ancing	-1607
antung	-1608
asiswa	-1609
aturan	-1610
ewakan	-1611
ingkat	-1612
sihkan	-1613
ubungi	-1614
ukisan	-1615
▁badan	-1616
▁basah	-1617
▁berit	-1618
▁cuaca	-1619
▁gelap	-1620
▁hadir	-1621
▁jeruk	-1622
▁kenal	-1623
▁matah	-1624
▁mawar	-1625
▁murid	-1626
▁nomor	-1627
▁pulau	-1628
ampunya	-1629
antikan	-1630
▁bangga	-1631
▁cerita	-1632
▁gambar	-1633
▁jarang	-1634
▁maksud	-1635
▁menari	-1636
▁mengir	-1637
▁pintar	-1638
▁potong	-1639
inggalan	-1640
▁caranya	-1641
▁jendela	-1642
▁kacamat	-1643
▁kehidup	-1644
▁lupakan	-1645
▁mengaku	-1646
▁keluarga	-1647
▁seberapa	-1648
▁digunakan	-1649
▁keputusan	-1650
▁merindukan	-1651
▁mempercayai	-1652
eja	-1653
kas	-1654
lan	-1655
pen	-1656
por	-1657
uas	-1658
yak	-1659
▁19	-1660
▁ok	-1661
▁tr	-1662
eman	-1663
eran	-1664
ewan	-1665
ibat	-1666
ilan	-1667
ubur	-1668
ulus	-1669
umur	-1670
urus	-1671
▁kas	-1672
▁kuk	-1673
abrak	-1674
lukan	-1675
▁astr	-1676
▁bayi	-1677
▁ekor	-1678
▁foto	-1679
▁gigi	-1680
▁gula	-1681
▁keju	-1682
▁suam	-1683
obanya	-1684
▁asing	-1685
▁belak	-1686
▁garam	-1687
▁kakek	-1688
▁kulit	-1689
▁penuh	-1690
▁perut	-1691
▁tanah	-1692
▁tiket	-1693
▁ujian	-1694
▁alasan	-1695
▁bersih	-1696
▁dengar	-1697
▁memaaf	-1698
▁memint	-1699
▁pandai	-1700
▁pemain	-1701
▁pulpen	-1702
▁berasal	-1703
▁kamarku	-1704
▁memikir	-1705
▁pakaian	-1706
▁pilihan	-1707
▁rasanya	-1708
▁rencana	-1709
▁hujannya	-1710
▁kepadaku	-1711
▁memotong	-1712
▁mencurig	-1713
▁nyalakan	-1714
embunyikan	-1715
▁mahasiswa	-1716
▁melupakan	-1717
▁memainkan	-1718
▁memancing	-1719
▁mematikan	-1720
▁mencintai	-1721
▁mengemudi	-1722
▁membantumu	-1723
▁membelikan	-1724
▁mencobanya	-1725
▁menghilang	-1726
▁kemungkinan	-1727
▁ketinggalan	-1728
▁membersihkan	-1729
▁mengecewakan	-1730
▁menyenangkan	-1731
▁menyembunyikan	-1732
bi	-1733
hi	-1734
ks	-1735
yo	-1736
ust	-1737
wan	-1738
yol	-1739
ahun	-1740
akut	-1741
anam	-1742
arai	-1743
atih	-1744
awan	-1745
ewat	-1746
ilet	-1747
izin	-1748
osan	-1749
raga	-1750
sung	-1751
ulat	-1752
▁ang	-1753
▁bin	-1754
▁cap	-1755
▁cok	-1756
▁daf	-1757
▁gem	-1758
▁int	-1759
▁kor	-1760
▁kub	-1761
▁kue	-1762
▁piz	-1763
▁ram	-1764
▁rib	-1765
▁sim	-1766
ambah	-1767
ancur	-1768
canya	-1769
ingan	-1770
ompet	-1771
onomi	-1772
unyai	-1773
▁baju	-1774
▁batu	-1775
▁bend	-1776
▁diam	-1777
▁jemb	-1778
▁perp	-1779
▁sofa	-1780
akutan	-1781
angani	-1782
anggil	-1783
ikmati	-1784
inding	-1785
senang	-1786
ungnya	-1787
▁bersi	-1788
▁bosan	-1789
▁botol	-1790
▁catur	-1791
▁dapur	-1792
▁hewan	-1793
▁ibumu	-1794
▁jenis	-1795
▁kartu	-1796
▁keseh	-1797
▁koran	-1798
▁lampu	-1799
▁mengk	-1800
▁rusak	-1801
▁suara	-1802
▁sungg	-1803
▁tokyo	-1804
elajari	-1805
jalanan	-1806
osankan	-1807
▁alamat	-1808
▁bersel	-1809
▁boneka	-1810
▁busnya	-1811
▁daftar	-1812
▁dariku	-1813
▁dimana	-1814
▁konyol	-1815
▁kulkas	-1816
▁mainan	-1817
▁pindah	-1818
▁tenang	-1819
▁toilet	-1820
olahraga	-1821
▁bandara	-1822
▁bendera	-1823
▁bingung	-1824
▁dimakan	-1825
▁kakakku	-1826
▁kamarmu	-1827
▁kecuali	-1828
▁lukisan	-1829
▁memerik	-1830
▁menanam	-1831
▁penjara	-1832
▁sejarah	-1833
▁terbang	-1834
▁untukku	-1835
▁untukmu	-1836
▁berharap	-1837
▁berjanji	-1838
▁butuhkan	-1839
▁jembatan	-1840
▁kesempat	-1841
▁lampunya	-1842
▁membuang	-1843
▁menembak	-1844
▁mengirim	-1845
▁mengubah	-1846
▁terbesar	-1847
▁terkunci	-1848
▁bersenang	-1849
▁beruntung	-1850
▁dibanding	-1851
▁kehidupan	-1852
▁ketakutan	-1853
▁mempunyai	-1854
▁mengikuti	-1855
▁pernahkah	-1856
▁masalahnya	-1857
▁mengangkat	-1858
▁perjalanan	-1859
▁membosankan	-1860
▁memperbaiki	-1861
▁mencintainya	-1862
▁mendengarnya	-1863
ji	-1864
ki	-1865
ri	-1866
30.	-1867
aut	-1868
ers	-1869
eum	-1870
iko	-1871
ila	-1872
ker	-1873
kir	-1874
kop	-1875
mas	-1876
oga	-1877
ont	-1878
ota	-1879
rat	-1880
uji	-1881
unc	-1882
▁10	-1883
▁ev	-1884
▁mu	-1885
▁ob	-1886
acks	-1887
ahat	-1888
alui	-1889
amud	-1890
emah	-1891
erak	-1892
form	-1893
inga	-1894
irip	-1895
laba	-1896
ucon	-1897
▁ged	-1898
▁gol	-1899
▁ist	-1900
▁jas	-1901
▁mon	-1902
▁mul	-1903
▁rok	-1904
▁sec	-1905
▁sup	-1906
abkan	-1907
acara	-1908
atuhi	-1909
egang	-1910
ember	-1911
ewati	-1912
gigit	-1913
omong	-1914
orong	-1915
oskop	-1916
ubung	-1917
▁cina	-1918
▁kenc	-1919
▁laba	-1920
▁plas	-1921
▁seng	-1922
▁topi	-1923
▁usia	-1924
ackson	-1925
akaran	-1926
amudra	-1927
lakiku	-1928
ukanya	-1929
▁capek	-1930
▁empat	-1931
▁gagal	-1932
▁gelas	-1933
▁hasil	-1934
▁kotor	-1935
▁lulus	-1936
▁mirip	-1937
▁sukai	-1938
enuhnya	-1939
ucapkan	-1940
▁angkat	-1941
▁berani	-1942
▁gedung	-1943
▁kemana	-1944
▁kemari	-1945
▁lanjut	-1946
▁matamu	-1947
▁maukah	-1948
▁menemu	-1949
▁museum	-1950
▁nampak	-1951
▁barunya	-1952
▁berusia	-1953
▁diminum	-1954
▁dinding	-1955
▁jackson	-1956
▁lelucon	-1957
▁liburan	-1958
▁matanya	-1959
▁mengand	-1960
▁mengira	-1961
▁pacarku	-1962
▁panggil	-1963
▁perpust	-1964
▁perusah	-1965
▁plastik	-1966
▁samudra	-1967
▁seluruh	-1968
▁sengaja	-1969
▁bangunan	-1970
▁binatang	-1971
▁dapatkah	-1972
▁dilarang	-1973
▁kacamata	-1974
▁matahari	-1975
▁melewati	-1976
▁memahami	-1977
▁menyalah	-1978
▁radionya	-1979
▁seminggu	-1980
▁tertutup	-1981
▁berterima	-1982
▁dengarkan	-1983
▁kebakaran	-1984
▁mengingin	-1985
▁peraturan	-1986
▁kesempatan	-1987
▁membantuku	-1988
▁membuatnya	-1989
▁memerlukan	-1990
▁mengundang	-1991
▁sepenuhnya	-1992
▁tinggalkan	-1993
▁mengendarai	-1994
▁menyarankan	-1995
▁pekerjaanmu	-1996
▁kelihatannya	-1997
▁membicarakan	-1998
ng	-1999
pu	-2000
te	-2001
▁o	-2002
aga	-2003
cin	-2004
eli	-2005
inc	-2006
isa	-2007
jak	-2008
jar	-2009
kur	-2010
▁li	-2011
anja	-2012
apas	-2013
atas	-2014
buku	-2015
bung	-2016
enci	-2017
enek	-2018
erah	-2019
erit	-2020
kali	-2021
onal	-2022
ongk	-2023
ujur	-2024
unda	-2025
univ	-2026
▁201	-2027
▁and	-2028
▁bea	-2029
▁bet	-2030
▁did	-2031
▁kay	-2032
▁kom	-2033
▁kut	-2034
▁lum	-2035
▁lus	-2036
▁str	-2037
▁yen	-2038
abrik	-2039
adiah	-2040
alami	-2041
angko	-2042
encan	-2043
lanet	-2044
ompat	-2045
siapa	-2046
takan	-2047
▁asal	-2048
▁berf	-2049
▁cari	-2050
▁izin	-2051
▁kaus	-2052
▁raja	-2053
▁seni	-2054
▁temb	-2055
▁univ	-2056
asihat	-2057
engkar	-2058
irahat	-2059
mainan	-2060
uarkan	-2061
▁angin	-2062
▁balik	-2063
▁bebas	-2064
▁belok	-2065
▁kebun	-2066
▁kunci	-2067
▁layak	-2068
▁lewat	-2069
▁nenek	-2070
▁pekan	-2071
▁sepat	-2072
▁suatu	-2073
▁tanda	-2074
▁tekan	-2075
▁tengg	-2076
ecahkan	-2077
emahkan	-2078
embunyi	-2079
etakkan	-2080
hatikan	-2081
indungi	-2082
kusikan	-2083
▁akibat	-2084
▁aturan	-2085
▁bagiku	-2086
▁dicuri	-2087
▁dijual	-2088
▁hadiah	-2089
▁hilang	-2090
▁inform	-2091
▁konser	-2092
▁kurasa	-2093
▁lancar	-2094
▁pabrik	-2095
▁sarung	-2096
ambahkan	-2097
anjutnya	-2098
▁anggota	-2099
▁berhati	-2100
▁berikut	-2101
▁bersiap	-2102
▁bioskop	-2103
▁bukunya	-2104
▁hidupku	-2105
▁kalimat	-2106
▁keluarg	-2107
▁lumayan	-2108
▁manakah	-2109
▁melalui	-2110
▁menghar	-2111
▁menurut	-2112
▁milikku	-2113
▁tahunku	-2114
▁univers	-2115
▁ambilkan	-2116
▁belakang	-2117
▁berakhir	-2118
▁harusnya	-2119
▁kuncinya	-2120
▁membenci	-2121
▁mengangg	-2122
▁mengeluh	-2123
▁perangko	-2124
▁pernikah	-2125
▁sudahkah	-2126
▁terbakar	-2127
▁astronomi	-2128
▁ditemukan	-2129
▁favoritmu	-2130
▁keberatan	-2131
▁kesehatan	-2132
▁memanggil	-2133
▁menderita	-2134
▁mengalami	-2135
▁mengantar	-2136
▁permainan	-2137
▁segalanya	-2138
▁tertinggi	-2139
▁bertengkar	-2140
▁melindungi	-2141
▁perusahaan	-2142
▁stasiunnya	-2143
▁keluarganya	-2144
▁menyebabkan	-2145
▁selanjutnya	-2146
▁mencurigakan	-2147
▁mengkhawatir	-2148
▁pekerjaannya	-2149
▁perpustakaan	-2150
▁memberitahumu	-2151
▁memberitahukan	-2152
og	-2153
ow	-2154
▁3	-2155
▁4	-2156
000	-2157
aru	-2158
ato	-2159
iat	-2160
iti	-2161
put	-2162
san	-2163
sin	-2164
uki	-2165
una	-2166
yur	-2167
▁18	-2168
▁br	-2169
anta	-2170
elek	-2171
erik	-2172
ocok	-2173
oduk	-2174
rika	-2175
ujuk	-2176
ular	-2177
▁bia	-2178
▁dah	-2179
▁dem	-2180
▁dok	-2181
▁dul	-2182
▁gug	-2183
▁isi	-2184
▁oke	-2185
▁pak	-2186
▁pop	-2187
▁pos	-2188
▁rak	-2189
▁rem	-2190
▁teb	-2191
▁tes	-2192
▁vol	-2193
adwal	-2194
amamu	-2195
artem	-2196
buang	-2197
engan	-2198
ondon	-2199
tanya	-2200
tikan	-2201
umpul	-2202
▁akal	-2203
▁desa	-2204
▁kaca	-2205
▁kont	-2206
▁muak	-2207
▁obat	-2208
▁penc	-2209
▁ping	-2210
▁rusa	-2211
ahukan	-2212
akasih	-2213
angkir	-2214
arikan	-2215
gabung	-2216
indari	-2217
▁cocok	-2218
▁cukai	-2219
▁gemuk	-2220
▁habis	-2221
▁hukum	-2222
▁kanan	-2223
▁libur	-2224
▁mesin	-2225
▁parah	-2226
▁pesan	-2227
▁seped	-2228
▁udara	-2229
amatkan	-2230
artemen	-2231
esarkan	-2232
▁alergi	-2233
▁antara	-2234
▁apinya	-2235
▁ayahmu	-2236
▁bagian	-2237
▁banget	-2238
▁cincin	-2239
▁dibuat	-2240
▁dompet	-2241
▁hobiku	-2242
▁kadang	-2243
▁london	-2244
▁menyet	-2245
▁namaku	-2246
▁nyaman	-2247
▁perang	-2248
▁perasa	-2249
▁pisang	-2250
▁planet	-2251
▁semoga	-2252
▁tampak	-2253
▁tangga	-2254
▁tombol	-2255
▁tuanya	-2256
▁anaknya	-2257
▁istriku	-2258
▁mengemb	-2259
▁perbuat	-2260
▁pingsan	-2261
▁salahku	-2262
▁sembuny	-2263
▁sungguh	-2264
▁umumnya	-2265
▁beritahu	-2266
▁bertahun	-2267
▁berteman	-2268
▁duduklah	-2269
▁istrinya	-2270
▁kamarnya	-2271
▁keduanya	-2272
▁langsung	-2273
▁menabrak	-2274
▁menyakit	-2275
▁olahraga	-2276
▁rapatnya	-2277
▁sarankan	-2278
▁setengah	-2279
▁siapapun	-2280
▁terjebak	-2281
▁anjingnya	-2282
▁bantuanmu	-2283
▁bicarakan	-2284
▁kepalanya	-2285
▁memercaya	-2286
▁pelajaran	-2287
▁pengacara	-2288
▁tangannya	-2289
▁tunjukkan	-2290
▁diperbaiki	-2291
▁jawabannya	-2292
▁jendelanya	-2293
▁kesukaanku	-2294
▁meletakkan	-2295
▁menurunkan	-2296
▁berselancar	-2297
▁bersembunyi	-2298
▁universitas	-2299
▁dibandingkan	-2300
▁menghentikan	-2301
▁memberikannya	-2302
▁memperhatikan	-2303
▁membutuhkannya	-2304
go	-2305
▁5	-2306
▁6	-2307
▁8	-2308
▁e	-2309
▁z	-2310
aus	-2311
mal	-2312
ode	-2313
ore	-2314
uhi	-2315
ura	-2316
yam	-2317
▁30	-2318
▁au	-2319
▁aw	-2320
▁da	-2321
▁il	-2322
▁le	-2323
aksa	-2324
alau	-2325
atal	-2326
atus	-2327
daki	-2328
ebat	-2329
edia	-2330
elat	-2331
enya	-2332
eras	-2333
ideo	-2334
ijau	-2335
imut	-2336
indu	-2337
isik	-2338
otak	-2339
taan	-2340
umen	-2341
uruk	-2342
▁atl	-2343
▁cat	-2344
▁gak	-2345
▁gur	-2346
▁hai	-2347
▁jag	-2348
▁kap	-2349
▁kat	-2350
▁keg	-2351
▁kum	-2352
▁pam	-2353
▁res	-2354
▁sat	-2355
▁sop	-2356
▁taw	-2357
▁tip	-2358
andat	-2359
anggu	-2360
atasi	-2361
dakah	-2362
elnya	-2363
empar	-2364
erest	-2365
ernet	-2366
ihara	-2367
iling	-2368
ingku	-2369
intah	-2370
janya	-2371
lasik	-2372
olusi	-2373
ongan	-2374
tahun	-2375
udian	-2376
umkan	-2377
ungsi	-2378
unjuk	-2379
untah	-2380
▁aman	-2381
▁aula	-2382
▁babi	-2383
▁bant	-2384
▁bawa	-2385
▁bila	-2386
▁bulu	-2387
▁cerd	-2388
▁fuji	-2389
▁golf	-2390
▁halo	-2391
▁hobi	-2392
▁kayu	-2393
▁kiri	-2394
▁laut	-2395
▁main	-2396
▁pasi	-2397
▁perk	-2398
▁pons	-2399
▁prof	-2400
▁rasi	-2401
▁sore	-2402
asalah	-2403
erikan	-2404
lintas	-2405
ukuran	-2406
▁2013.	-2407
▁biaya	-2408
▁biola	-2409
▁bubur	-2410
▁cerit	-2411
▁gugup	-2412
▁hijau	-2413
▁hutan	-2414
▁jasmu	-2415
▁jujur	-2416
▁jumpa	-2417
▁kalah	-2418
▁kesep	-2419
▁kolam	-2420
▁mener	-2421
▁menip	-2422
▁mimpi	-2423
▁paman	-2424
▁pengg	-2425
▁ramah	-2426
▁rindu	-2427
▁ruang	-2428
▁video	-2429
katakan	-2430
malukan	-2431
▁adakah	-2432
▁akulah	-2433
▁berita	-2434
▁bohong	-2435
▁dibaca	-2436
▁diriku	-2437
▁jumlah	-2438
▁klasik	-2439
▁kuning	-2440
▁mentah	-2441
▁menyes	-2442
▁muntah	-2443
▁pendek	-2444
▁tengah	-2445
▁tepung	-2446
ancurkan	-2447
lihatkan	-2448
▁bawakan	-2449
▁cokelat	-2450
▁dulunya	-2451
▁everest	-2452
▁harapan	-2453
▁istrimu	-2454
▁kabarmu	-2455
▁kopinya	-2456
▁kupikir	-2457
▁makasih	-2458
▁matikan	-2459
▁memesan	-2460
▁menakut	-2461
▁mendaki	-2462
▁milikmu	-2463
▁mobilmu	-2464
▁nasihat	-2465
▁petugas	-2466
▁situasi	-2467
▁tawaran	-2468
▁tulisan	-2469
▁uangnya	-2470
▁bergerak	-2471
▁berharga	-2472
▁bermimpi	-2473
▁bertahan	-2474
▁cuacanya	-2475
▁diadakan	-2476
▁hentikan	-2477
▁internet	-2478
▁lepaskan	-2479
▁membujuk	-2480
▁mencukur	-2481
▁menikahi	-2482
▁menjelas	-2483
▁menyuruh	-2484
▁pacarnya	-2485
▁penyakit	-2486
▁perancis	-2487
▁rambutmu	-2488
▁seharian	-2489
▁semangka	-2490
▁sembilan	-2491
▁siapakah	-2492
▁tetangga	-2493
▁bergabung	-2494
▁informasi	-2495
▁mendorong	-2496
▁mengatasi	-2497
▁menyentuh	-2498
▁merasakan	-2499
▁tambahkan	-2500
▁terkadang	-2501
andatangani	-2502
▁berikutnya	-2503
▁dibesarkan	-2504
▁kesukaanmu	-2505
▁membunuhku	-2506
▁memecahkan	-2507
▁memikirkan	-2508
▁menanyakan	-2509
▁menunggumu	-2510
▁pendapatmu	-2511
▁mengenalnya	-2512
▁menghubungi	-2513
▁mengucapkan	-2514
▁menyalahkan	-2515
▁menginginkan	-2516
▁mengembalikan	-2517
".	-2518
li	-2519
su	-2520
▁'	-2521
agu	-2522
erm	-2523
fik	-2524
gai	-2525
gak	-2526
iah	-2527
iam	-2528
ilo	-2529
ina	-2530
koh	-2531
lik	-2532
mur	-2533
pit	-2534
pon	-2535
tol	-2536
tor	-2537
uks	-2538
ume	-2539
▁bu	-2540
▁id	-2541
▁it	-2542
▁mi	-2543
▁ny	-2544
▁pe	-2545
▁te	-2546
adar	-2547
ahab	-2548
ajak	-2549
ajam	-2550
akat	-2551
aksi	-2552
angi	-2553
ansa	-2554
arat	-2555
aruh	-2556
ebus	-2557
ecat	-2558
egas	-2559
ejar	-2560
eles	-2561
faat	-2562
graf	-2563
gram	-2564
idih	-2565
ilin	-2566
inci	-2567
iram	-2568
itif	-2569
oboh	-2570
oker	-2571
pura	-2572
samp	-2573
ubuh	-2574
ulir	-2575
uman	-2576
urau	-2577
▁apr	-2578
▁bau	-2579
▁bek	-2580
▁bib	-2581
▁bol	-2582
▁chi	-2583
▁din	-2584
▁hid	-2585
▁jut	-2586
▁mac	-2587
▁mad	-2588
▁maj	-2589
▁mil	-2590
▁new	-2591
▁pid	-2592
▁puc	-2593
▁pus	-2594
▁sma	-2595
▁suh	-2596
▁tal	-2597
▁usi	-2598
aikan	-2599
ampan	-2600
embar	-2601
engat	-2602
impan	-2603
kohol	-2604
lahan	-2605
ormal	-2606
▁cuci	-2607
▁demi	-2608
▁form	-2609
▁gaya	-2610
▁ilmu	-2611
▁jaga	-2612
▁lari	-2613
▁lucu	-2614
▁maka	-2615
▁meks	-2616
▁peta	-2617
▁piza	-2618
▁puas	-2619
▁ragu	-2620
▁rest	-2621
▁sapi	-2622
▁saud	-2623
▁tanp	-2624
▁urus	-2625
ampuan	-2626
anakku	-2627
anggan	-2628
angkuk	-2629
angnya	-2630
aparan	-2631
arinya	-2632
barang	-2633
elahan	-2634
elanja	-2635
endara	-2636
incang	-2637
ingkah	-2638
kadang	-2639
ongkok	-2640
▁berar	-2641
▁dikel	-2642
▁disel	-2643
▁gajah	-2644
▁jelek	-2645
▁kapal	-2646
▁koper	-2647
▁lapor	-2648
▁mulut	-2649
▁natal	-2650
▁nggak	-2651
▁sabtu	-2652
▁saran	-2653
▁semes	-2654
▁susah	-2655
▁tajam	-2656
▁tuhan	-2657
▁utama	-2658
▁wajah	-2659
▁walau	-2660
ahuinya	-2661
anaknya	-2662
anyikan	-2663
lakinya	-2664
nyataan	-2665
yangkan	-2666
▁anakku	-2667
▁bahaya	-2668
▁bantal	-2669
▁berpel	-2670
▁bosnya	-2671
▁cerdas	-2672
▁dahulu	-2673
▁gereja	-2674
▁istana	-2675
▁jadwal	-2676
▁kembar	-2677
▁lambat	-2678
▁lengan	-2679
▁mampir	-2680
▁mataku	-2681
▁membaw	-2682
▁mendis	-2683
▁mengag	-2684
▁mengem	-2685
▁menipu	-2686
▁namamu	-2687
▁normal	-2688
▁nyamuk	-2689
▁paspor	-2690
▁pemand	-2691
▁ponsel	-2692
▁produk	-2693
▁rumput	-2694
▁sambil	-2695
▁sampah	-2696
▁santai	-2697
▁selain	-2698
▁sempit	-2699
▁sentuh	-2700
▁sweter	-2701
▁tampan	-2702
▁terasa	-2703
▁volume	-2704
ingkatan	-2705
▁artinya	-2706
▁berbuat	-2707
▁berguna	-2708
▁berkons	-2709
▁catatan	-2710
▁digigit	-2711
▁ditutup	-2712
▁hubungi	-2713
▁kakinya	-2714
▁lainnya	-2715
▁mejanya	-2716
▁meksiko	-2717
▁melukis	-2718
▁memukul	-2719
▁menemui	-2720
▁menghad	-2721
▁menjaga	-2722
▁pikiran	-2723
▁rasakan	-2724
▁rumahmu	-2725
▁serikat	-2726
▁tahukah	-2727
▁talinya	-2728
▁telinga	-2729
▁temanmu	-2730
▁tentara	-2731
▁terkena	-2732
▁usianya	-2733
▁berdansa	-2734
▁bergurau	-2735
▁bukannya	-2736
▁dibangun	-2737
▁formulir	-2738
▁kedengar	-2739
▁kemudian	-2740
▁melompat	-2741
▁memasuki	-2742
▁mematuhi	-2743
▁membalas	-2744
▁mendidih	-2745
▁mengakui	-2746
▁menyesal	-2747
▁menyiram	-2748
▁restoran	-2749
▁serangga	-2750
▁tanganku	-2751
▁terdapat	-2752
▁terletak	-2753
antikannya	-2754
▁dikatakan	-2755
▁dipercaya	-2756
▁kelaparan	-2757
▁kelelahan	-2758
▁kemampuan	-2759
▁melihatku	-2760
▁memaafkan	-2761
▁memberimu	-2762
▁memeriksa	-2763
▁menghemat	-2764
▁menurutku	-2765
▁menyangka	-2766
▁merupakan	-2767
▁rambutnya	-2768
▁bantuannya	-2769
▁berbelanja	-2770
▁kebanyakan	-2771
▁keluargaku	-2772
▁kembalikan	-2773
▁menghargai	-2774
▁permasalah	-2775
▁pernikahan	-2776
▁pernyataan	-2777
▁teleponnya	-2778
▁mempelajari	-2779
▁memperingat	-2780
▁mencintaimu	-2781
▁menyanyikan	-2782
▁menyerahkan	-2783
▁perlihatkan	-2784
▁kedengarannya	-2785
▁mempermalukan	-2786
▁mendiskusikan	-2787
▁mengatakannya	-2788
▁mengetahuinya	-2789
▁mengecewakanku	-2790
ce	-2791
yi	-2792
za	-2793
▁?	-2794
ans	-2795
bur	-2796
cak	-2797
erh	-2798
ger	-2799
iwa	-2800
kip	-2801
man	-2802
nis	-2803
obr	-2804
ogi	-2805
ork	-2806
ort	-2807
tif	-2808
top	-2809
tur	-2810
▁2:	-2811
▁ab	-2812
▁kh	-2813
▁re	-2814
▁sy	-2815
▁th	-2816
.30.	-2817
acun	-2818
adai	-2819
agih	-2820
akmu	-2821
amil	-2822
baru	-2823
buru	-2824
cago	-2825
elam	-2826
ensa	-2827
esat	-2828
etik	-2829
ewas	-2830
gala	-2831
idik	-2832
iksi	-2833
ilai	-2834
inal	-2835
inar	-2836
isan	-2837
iter	-2838
jata	-2839
kuat	-2840
otor	-2841
rasi	-2842
saan	-2843
tasi	-2844
uari	-2845
ungu	-2846
uris	-2847
usak	-2848
▁ali	-2849
▁bep	-2850
▁bom	-2851
▁cel	-2852
▁dew	-2853
▁eks	-2854
▁flu	-2855
▁gaj	-2856
▁gor	-2857
▁idi	-2858
▁jeb	-2859
▁kej	-2860
▁kok	-2861
▁lub	-2862
▁met	-2863
▁pal	-2864
▁pat	-2865
▁pil	-2866
▁pir	-2867
▁sak	-2868
▁say	-2869
▁ski	-2870
anduk	-2871
antuk	-2872
araku	-2873
boleh	-2874
edaku	-2875
embus	-2876
enjak	-2877
ering	-2878
feksi	-2879
indak	-2880
kenal	-2881
kipun	-2882
murid	-2883
nanya	-2884
ologi	-2885
sanya	-2886
sinya	-2887
uhkan	-2888
umber	-2889
uncul	-2890
undur	-2891
ungan	-2892
▁asia	-2893
▁ayam	-2894
▁cucu	-2895
▁dasi	-2896
▁gaji	-2897
▁gunt	-2898
▁haus	-2899
▁jiwa	-2900
▁kent	-2901
▁lusa	-2902
▁mars	-2903
▁padi	-2904
▁ribu	-2905
▁suar	-2906
▁suhu	-2907
▁swis	-2908
▁tata	-2909
▁terc	-2910
▁tiri	-2911
▁tong	-2912
▁usah	-2913
▁wort	-2914
▁york	-2915
abaran	-2916
ahabat	-2917
akanku	-2918
anakan	-2919
anfaat	-2920
angkan	-2921
ekolah	-2922
eleset	-2923
endang	-2924
entara	-2925
ergian	-2926
masing	-2927
ormati	-2928
purung	-2929
sampai	-2930
unjung	-2931
▁2:30.	-2932
▁aktor	-2933
▁alice	-2934
▁andai	-2935
▁angka	-2936
▁badai	-2937
▁cerah	-2938
▁ember	-2939
▁garis	-2940
▁halte	-2941
▁hamil	-2942
▁hantu	-2943
▁ikuti	-2944
▁lensa	-2945
▁malas	-2946
▁manis	-2947
▁napas	-2948
▁paris	-2949
▁pedas	-2950
▁pelan	-2951
▁peril	-2952
▁pizza	-2953
▁pucat	-2954
▁sabar	-2955
▁sejam	-2956
▁tagih	-2957
▁tebal	-2958
▁tentu	-2959
▁tikus	-2960
▁tugas	-2961
▁turis	-2962
▁utara	-2963
anggung	-2964
atuhkan	-2965
awarkan	-2966
esional	-2967
inginan	-2968
temanku	-2969
▁adanya	-2970
▁asuran	-2971
▁bangsa	-2972
▁barumu	-2973
▁berist	-2974
▁bisbol	-2975
▁bonnya	-2976
▁daerah	-2977
▁darimu	-2978
▁dewasa	-2979
▁diatas	-2980
▁disini	-2981
▁gurumu	-2982
▁inilah	-2983
▁italia	-2984
▁jerman	-2985
▁kakiku	-2986
▁kanker	-2987
▁kontak	-2988
▁lubang	-2989
▁masing	-2990
▁menaik	-2991
▁mengur	-2992
▁menyed	-2993
▁muncul	-2994
▁persik	-2995
▁pidato	-2996
▁pistol	-2997
▁ringan	-2998
▁sejauh	-2999
▁sumber	-3000
▁terang	-3001
▁terbit	-3002
▁tomlah	-3003
▁ukuran	-3004
antainya	-3005
engaruhi	-3006
eriksaan	-3007
▁alkohol	-3008
▁berarti	-3009
▁berisik	-3010
▁bernama	-3011
▁berniat	-3012
▁beruang	-3013
▁berumur	-3014
▁ceroboh	-3015
▁chicago	-3016
▁darinya	-3017
▁dipecat	-3018
▁disebut	-3019
▁dokumen	-3020
▁gunakan	-3021
▁halaman	-3022
▁jebakan	-3023
▁kebenar	-3024
▁lukanya	-3025
▁majalah	-3026
▁mangkuk	-3027
▁masakan	-3028
▁melepas	-3029
▁menaruh	-3030
▁menduga	-3031
▁menebak	-3032
▁ngantuk	-3033
▁pasifik	-3034
▁pelayan	-3035
▁perbeda	-3036
▁sayuran	-3037
▁senjata	-3038
▁temukan	-3039
▁atlantik	-3040
▁benarkah	-3041
▁berulang	-3042
▁hasilnya	-3043
▁hidupnya	-3044
▁kakeknya	-3045
▁kecilkan	-3046
▁kulitnya	-3047
▁lihatlah	-3048
▁maksudmu	-3049
▁mengejar	-3050
▁mengemud	-3051
▁menggali	-3052
▁mengunci	-3053
▁menjalan	-3054
▁meskipun	-3055
▁pastikan	-3056
▁penyanyi	-3057
▁pestanya	-3058
▁sebanyak	-3059
▁semenjak	-3060
▁sepedaku	-3061
▁serigala	-3062
▁suaminya	-3063
▁suratnya	-3064
▁tanyakan	-3065
▁temannya	-3066
▁terbunuh	-3067
▁terburuk	-3068
▁terdekat	-3069
▁tersesat	-3070
▁walaupun	-3071
▁warnanya	-3072
erjemahkan	-3073
▁bangunlah	-3074
▁bepergian	-3075
▁datanglah	-3076
▁jawabanmu	-3077
▁kegelapan	-3078
▁kelihatan	-3079
▁kesabaran	-3080
▁melarikan	-3081
▁memberiku	-3082
▁memintaku	-3083
▁menangkap	-3084
▁mengajari	-3085
▁mengandal	-3086
▁menikmati	-3087
▁meningkat	-3088
▁pembohong	-3089
▁sangatlah	-3090
▁sayangnya	-3091
▁secangkir	-3092
▁selamanya	-3093
▁tempurung	-3094
▁tenggelam	-3095
▁berpelukan	-3096
▁bersamanya	-3097
▁bersekolah	-3098
▁makanannya	-3099
▁membelinya	-3100
▁memintanya	-3101
▁mempermain	-3102
▁menciumnya	-3103
▁menganggap	-3104
▁menggambar	-3105
▁menghadiri	-3106
▁menungguku	-3107
▁pengalaman	-3108
▁pertanding	-3109
▁seringkali	-3110
▁terpeleset	-3111
▁beritahukan	-3112
▁bertanggung	-3113
▁memahaminya	-3114
▁memperkenal	-3115
▁mengagumkan	-3116
▁mengantarmu	-3117
▁mengirimkan	-3118
▁menjatuhkan	-3119
▁menjelaskan	-3120
▁pemeriksaan	-3121
▁profesional	-3122
▁beristirahat	-3123
▁kesalahannya	-3124
▁mengeluarkan	-3125
▁menyelamatkan	-3126
▁menandatangani	-3127
▁meninggalkanmu	-3128
2.	-3129
9.	-3130
do	-3131
ei	-3132
ft	-3133
lo	-3134
mi	-3135
abe	-3136
bat	-3137
cok	-3138
dir	-3139
egi	-3140
ept	-3141
erb	-3142
erd	-3143
gar	-3144
kar	-3145
lat	-3146
oak	-3147
odi	-3148
org	-3149
pet	-3150
sen	-3151
str	-3152
uai	-3153
urn	-3154
wai	-3155
war	-3156
yat	-3157
yek	-3158
yet	-3159
zat	-3160
zin	-3161
▁ac	-3162
▁af	-3163
▁dr	-3164
▁fr	-3165
▁ge	-3166
▁hi	-3167
▁oh	-3168
▁os	-3169
▁pi	-3170
▁sp	-3171
▁ud	-3172
▁ur	-3173
.000	-3174
aian	-3175
aket	-3176
apai	-3177
arap	-3178
ejak	-3179
emeh	-3180
esif	-3181
foto	-3182
gesa	-3183
ijak	-3184
ikam	-3185
ikap	-3186
itik	-3187
jaga	-3188
kira	-3189
mail	-3190
ocor	-3191
okan	-3192
ones	-3193
oper	-3194
osis	-3195
siun	-3196
tiba	-3197
ulah	-3198
upun	-3199
▁199	-3200
▁agr	-3201
▁amb	-3202
▁atm	-3203
▁baj	-3204
▁bal	-3205
▁cac	-3206
▁cob	-3207
▁gej	-3208
▁hat	-3209
▁imp	-3210
▁kek	-3211
▁kuh	-3212
▁lem	-3213
▁mis	-3214
▁peg	-3215
▁sih	-3216
▁sis	-3217
▁tek	-3218
▁tuk	-3219
▁tun	-3220
▁waj	-3221
abean	-3222
agian	-3223
ahagi	-3224
ahuan	-3225
aknya	-3226
alaku	-3227
andas	-3228
andia	-3229
anian	-3230
antas	-3231
aramu	-3232
ariku	-3233
aring	-3234
arkir	-3235
arnya	-3236
arung	-3237
askan	-3238
atian	-3239
ayang	-3240
bunga	-3241
elahi	-3242
emuan	-3243
ender	-3244
enyak	-3245
epeda	-3246
eping	-3247
iknya	-3248
indar	-3249
jajar	-3250
jakan	-3251
nyata	-3252
oberi	-3253
obrol	-3254
ratis	-3255
tahil	-3256
udaya	-3257
umpah	-3258
urang	-3259
utang	-3260
▁alas	-3261
▁asap	-3262
▁asli	-3263
▁banj	-3264
▁camp	-3265
▁cium	-3266
▁engg	-3267
▁gamp	-3268
▁jari	-3269
▁juli	-3270
▁juta	-3271
▁kegi	-3272
▁kilo	-3273
▁koin	-3274
▁kred	-3275
▁laku	-3276
▁lemb	-3277
▁madu	-3278
▁mist	-3279
▁muka	-3280
▁oper	-3281
▁otak	-3282
▁pena	-3283
▁perc	-3284
▁perd	-3285
▁perg	-3286
▁rapi	-3287
▁simp	-3288
▁sisi	-3289
▁tepi	-3290
▁tiap	-3291
▁truk	-3292
▁tuli	-3293
▁tumb	-3294
andang	-3295
anggup	-3296
apanmu	-3297
ayakan	-3298
berapa	-3299
burung	-3300
elamat	-3301
etulan	-3302
iapkan	-3303
iasaan	-3304
idikan	-3305
ingnya	-3306
isinya	-3307
jadian	-3308
jamkan	-3309
lambat	-3310
oleksi	-3311
ondong	-3312
sinyur	-3313
terima	-3314
ulitan	-3315
▁2.30.	-3316
▁acara	-3317
▁april	-3318
▁barat	-3319
▁bekas	-3320
▁benua	-3321
▁bocor	-3322
▁bulat	-3323
▁deras	-3324
▁diket	-3325
▁fasih	-3326
▁fiksi	-3327
▁garpu	-3328
▁instr	-3329
▁jaket	-3330
▁jejak	-3331
▁jurus	-3332
▁kedat	-3333
▁kekur	-3334
▁kepon	-3335
▁keren	-3336
▁kocok	-3337
▁kurus	-3338
▁lebah	-3339
▁lezat	-3340
▁lilin	-3341
▁lipat	-3342
▁lusin	-3343
▁makin	-3344
▁menah	-3345
▁meter	-3346
▁mohon	-3347
▁musuh	-3348
▁omong	-3349
▁pajak	-3350
▁paruh	-3351
▁patah	-3352
▁pengh	-3353
▁perak	-3354
▁popul	-3355
▁pungg	-3356
▁pusat	-3357
▁resmi	-3358
▁sadar	-3359
▁sinar	-3360
▁sopir	-3361
▁surya	-3362
▁swiss	-3363
▁tasmu	-3364
▁telat	-3365
▁tewas	-3366
▁topan	-3367
▁tuamu	-3368
▁tungg	-3369
▁wawan	-3370
abaikan	-3371
amannya	-3372
asilkan	-3373
ejutkan	-3374
emangat	-3375
entilah	-3376
entrasi	-3377
epatnya	-3378
▁afrika	-3379
▁akurat	-3380
▁basket	-3381
▁bensin	-3382
▁berisi	-3383
▁berjam	-3384
▁bisnis	-3385
▁bukumu	-3386
▁cermat	-3387
▁coklat	-3388
▁dialah	-3389
▁dibawa	-3390
▁dibeli	-3391
▁diluar	-3392
▁garasi	-3393
▁gratis	-3394
▁hitung	-3395
▁hubung	-3396
▁jutaan	-3397
▁kacang	-3398
▁kecoak	-3399
▁ketiga	-3400
▁landas	-3401
▁laptop	-3402
▁masker	-3403
▁maupun	-3404
▁mengak	-3405
▁mengap	-3406
▁metode	-3407
▁monyet	-3408
▁pabean	-3409
▁pegang	-3410
▁pemalu	-3411
▁perahu	-3412
▁permen	-3413
▁pertol	-3414
▁proyek	-3415
▁puncak	-3416
▁rencan	-3417
▁ribuan	-3418
▁selagi	-3419
▁selera	-3420
▁sembuh	-3421
▁seolah	-3422
▁sesuai	-3423
▁sistem	-3424
▁tambah	-3425
▁tukang	-3426
baikinya	-3427
bolehkan	-3428
indahkan	-3429
temannya	-3430
umpulkan	-3431
▁agresif	-3432
▁bayinya	-3433
▁beneran	-3434
▁berpura	-3435
▁bolanya	-3436
▁cobalah	-3437
▁dibunuh	-3438
▁dipaksa	-3439
▁dipijak	-3440
▁ditulis	-3441
▁filmnya	-3442
▁gampang	-3443
▁gerbang	-3444
▁gunting	-3445
▁harinya	-3446
▁hukuman	-3447
▁izinkan	-3448
▁kananku	-3449
▁kantong	-3450
▁katanya	-3451
▁kebutuh	-3452
▁kedalam	-3453
▁kenakan	-3454
▁kuharap	-3455
▁laporan	-3456
▁maafkan	-3457
▁manapun	-3458
▁melukai	-3459
▁meminum	-3460
▁memulai	-3461
▁menahan	-3462
▁menaiki	-3463
▁merawat	-3464
▁meremeh	-3465
▁merusak	-3466
▁misteri	-3467
▁nasinya	-3468
▁nenekku	-3469
▁nyenyak	-3470
▁pensiun	-3471
▁penulis	-3472
▁peratur	-3473
▁perempu	-3474
▁politik	-3475
▁positif	-3476
▁sahabat	-3477
▁sanggup	-3478
▁satupun	-3479
▁segelas	-3480
▁semesta	-3481
▁seratus	-3482
▁suamiku	-3483
▁tahunmu	-3484
▁tanpamu	-3485
▁tergesa	-3486
▁tersisa	-3487
▁tongkat	-3488
aksanakan	-3489
anfaatkan	-3490
endalikan	-3491
ingungkan	-3492
▁anjingku	-3493
▁asuransi	-3494
▁berfikir	-3495
▁berlatih	-3496
▁cepatlah	-3497
▁darimana	-3498
▁dijatuhi	-3499
▁diterima	-3500
▁diundang	-3501
▁fotograf	-3502
▁hanyalah	-3503
▁insinyur	-3504
▁kegiatan	-3505
▁kejadian	-3506
▁kematian	-3507
▁kepalaku	-3508
▁kerjakan	-3509
▁kesepian	-3510
▁komentar	-3511
▁kriminal	-3512
▁melempar	-3513
▁mengatur	-3514
▁mengenai	-3515
▁mengetuk	-3516
▁mengizin	-3517
▁menuruni	-3518
▁mustahil	-3519
▁pergilah	-3520
▁perintah	-3521
▁perlahan	-3522
▁perminta	-3523
▁petunjuk	-3524
▁pinjaman	-3525
▁sebagian	-3526
▁sedingin	-3527
▁sembunyi	-3528
▁sepatumu	-3529
▁sepedamu	-3530
▁sepotong	-3531
▁stroberi	-3532
▁suaranya	-3533
▁tahunnya	-3534
▁tepatnya	-3535
▁ternyata	-3536
▁tersedia	-3537
▁terserah	-3538
▁teruslah	-3539
▁tidakkah	-3540
▁untuknya	-3541
▁alasannya	-3542
▁apartemen	-3543
▁berfungsi	-3544
▁berhembus	-3545
▁berkelahi	-3546
▁bersamaku	-3547
▁bersamamu	-3548
▁bersepeda	-3549
▁bertarung	-3550
▁bertindak	-3551
▁ceritakan	-3552
▁dihindari	-3553
▁dijunjung	-3554
▁diketahui	-3555
▁favoritku	-3556
▁garasinya	-3557
▁istirahat	-3558
▁kebetulan	-3559
▁kebiasaan	-3560
▁kepadanya	-3561
▁kesulitan	-3562
▁kukatakan	-3563
▁langitnya	-3564
▁makananmu	-3565
▁masalahku	-3566
▁membangun	-3567
▁menangani	-3568
▁mencariku	-3569
▁menendang	-3570
▁menggangg	-3571
▁menghadap	-3572
▁mengobrol	-3573
▁menjalani	-3574
▁menyimpan	-3575
▁pelanggan	-3576
▁pengemudi	-3577
▁pulanglah	-3578
▁sekolahmu	-3579
▁sementara	-3580
▁sepedanya	-3581
▁singkatan	-3582
▁tenanglah	-3583
▁terhindar	-3584
▁tombolnya	-3585
▁untungnya	-3586
▁wawancara	-3587
▁bergantung	-3588
▁berpikiran	-3589
▁bertingkah	-3590
▁departemen	-3591
▁dipelajari	-3592
▁kedatangan	-3593
▁kekurangan	-3594
▁komputerku	-3595
▁memasukkan	-3596
▁membencimu	-3597
▁memelihara	-3598
▁memercayai	-3599
▁menahannya	-3600
▁menakutkan	-3601
▁menawarkan	-3602
▁mengoleksi	-3603
▁menunggang	-3604
▁menyalakan	-3605
▁menyiapkan	-3606
▁perasaanmu	-3607
▁secepatnya	-3608
▁selesaikan	-3609
▁seorangpun	-3610
▁tertinggal	-3611
▁berhentilah	-3612
▁dikeluarkan	-3613
▁keberangkat	-3614
▁kesalahanku	-3615
▁membantunya	-3616
▁meneleponku	-3617
▁mengabaikan	-3618
▁menolongnya	-3619
▁pemandangan	-3620
▁pendapatnya	-3621
▁perempuanku	-3622
▁terjemahkan	-3623
▁memaafkannya	-3624
▁memanfaatkan	-3625
▁memberikanku	-3626
▁memeriksanya	-3627
▁mengemudikan	-3628
▁menghasilkan	-3629
▁mengumpulkan	-3630
▁menyeberangi	-3631
▁peraturannya	-3632
▁permasalahan	-3633
▁pertandingan	-3634
▁diperbolehkan	-3635
▁diterjemahkan	-3636
▁mempercayaiku	-3637
▁menantikannya	-3638
▁mengendalikan	-3639
▁menghancurkan	-3640
▁memberitahunya	-3641
▁memperbaikinya	-3642
▁mengingatkanku	-3643
▁mengkhawatirkan	-3644
",	-3645
,"	-3646
70	-3647
di	-3648
mb	-3649
pr	-3650
ux	-3651
▁$	-3652
abi	-3653
abu	-3654
ahl	-3655
aif	-3656
aji	-3657
ark	-3658
bau	-3659
cor	-3660
ebo	-3661
ego	-3662
eku	-3663
fon	-3664
hat	-3665
inj	-3666
ins	-3667
kai	-3668
kin	-3669
ler	-3670
onc	-3671
oni	-3672
ono	-3673
ori	-3674
orw	-3675
osi	-3676
pel	-3677
pir	-3678
ram	-3679
ren	-3680
sih	-3681
taw	-3682
ter	-3683
tet	-3684
▁3.	-3685
▁40	-3686
▁50	-3687
▁ef	-3688
▁ek	-3689
▁gu	-3690
▁ky	-3691
▁pu	-3692
▁sk	-3693
▁ul	-3694
▁un	-3695
▁up	-3696
adam	-3697
adop	-3698
ahit	-3699
ajat	-3700
alir	-3701
alis	-3702
anas	-3703
arga	-3704
atap	-3705
buah	-3706
corn	-3707
disi	-3708
ebab	-3709
ebih	-3710
eceh	-3711
edak	-3712
egia	-3713
ekom	-3714
emar	-3715
empa	-3716
erai	-3717
esti	-3718
gian	-3719
gius	-3720
ibur	-3721
inux	-3722
isah	-3723
istr	-3724
jaks	-3725
jauh	-3726
kupu	-3727
onat	-3728
onis	-3729
ontr	-3730
oton	-3731
resi	-3732
saya	-3733
tega	-3734
tiga	-3735
uasa	-3736
umah	-3737
uruf	-3738
usin	-3739
usuk	-3740
utar	-3741
utih	-3742
yaku	-3743
▁200	-3744
▁alb	-3745
▁bac	-3746
▁bid	-3747
▁dat	-3748
▁deb	-3749
▁der	-3750
▁des	-3751
▁ego	-3752
▁ent	-3753
▁fil	-3754
▁gal	-3755
▁gas	-3756
▁gim	-3757
▁hak	-3758
▁hen	-3759
▁hiu	-3760
▁hok	-3761
▁ilm	-3762
▁iri	-3763
▁jan	-3764
▁jen	-3765
▁jup	-3766
▁kro	-3767
▁kud	-3768
▁lam	-3769
▁lok	-3770
▁lot	-3771
▁mal	-3772
▁may	-3773
▁mei	-3774
▁min	-3775
▁mod	-3776
▁naf	-3777
▁pip	-3778
▁pud	-3779
▁reg	-3780
▁rup	-3781
▁tab	-3782
adisi	-3783
ahaya	-3784
akkan	-3785
alang	-3786
ambut	-3787
ampil	-3788
andai	-3789
andar	-3790
andum	-3791
ankas	-3792
antis	-3793
apain	-3794
arket	-3795
atnya	-3796
ayaan	-3797
barui	-3798
cepat	-3799
egera	-3800
enter	-3801
entur	-3802
enuhi	-3803
eraku	-3804
gawai	-3805
gitan	-3806
hidup	-3807
iakan	-3808
iking	-3809
ikuti	-3810
irkan	-3811
itung	-3812
jawab	-3813
kulat	-3814
masuk	-3815
sihan	-3816
ukamu	-3817
uktur	-3818
ukung	-3819
ulkan	-3820
untut	-3821
usias	-3822
vatif	-3823
▁adil	-3824
▁akta	-3825
▁area	-3826
▁arti	-3827
▁arus	-3828
▁atap	-3829
▁awas	-3830
▁biar	-3831
▁bima	-3832
▁buru	-3833
▁diaj	-3834
▁eksp	-3835
▁gaun	-3836
▁gemb	-3837
▁imut	-3838
▁jago	-3839
▁janj	-3840
▁juni	-3841
▁kamp	-3842
▁kena	-3843
▁khan	-3844
▁konf	-3845
▁krit	-3846
▁kuba	-3847
▁kuku	-3848
▁kupu	-3849
▁luas	-3850
▁luka	-3851
▁mant	-3852
▁ment	-3853
▁naif	-3854
▁nark	-3855
▁norw	-3856
▁paru	-3857
▁pram	-3858
▁raya	-3859
▁reli	-3860
▁semi	-3861
▁seny	-3862
▁sing	-3863
▁syok	-3864
▁tamu	-3865
▁tang	-3866
▁tiup	-3867
▁ular	-3868
▁ungu	-3869
acunan	-3870
adakan	-3871
adopsi	-3872
agukan	-3873
akaian	-3874
akunya	-3875
alilah	-3876
amaian	-3877
andung	-3878
anggut	-3879
angkau	-3880
atihan	-3881
baikan	-3882
bangsa	-3883
buahan	-3884
ciuman	-3885
elahir	-3886
engang	-3887
ilingi	-3888
inggir	-3889
irikan	-3890
irinya	-3891
kataan	-3892
layang	-3893
likasi	-3894
namaku	-3895
onesia	-3896
ongkar	-3897
ubahan	-3898
ultasi	-3899
ungkit	-3900
▁absen	-3901
▁alami	-3902
▁bengk	-3903
▁buang	-3904
▁bukit	-3905
▁bukti	-3906
▁debat	-3907
▁detik	-3908
▁dinya	-3909
▁donat	-3910
▁egois	-3911
▁gagap	-3912
▁gempa	-3913
▁harta	-3914
▁heran	-3915
▁huruf	-3916
▁idiot	-3917
▁india	-3918
▁jumat	-3919
▁kasar	-3920
▁kebis	-3921
▁kemej	-3922
▁kontr	-3923
▁kumis	-3924
▁kupas	-3925
▁kupon	-3926
▁kyoto	-3927
▁lemah	-3928
▁linux	-3929
▁listr	-3930
▁loker	-3931
▁luang	-3932
▁macam	-3933
▁melam	-3934
▁melet	-3935
▁mempr	-3936
▁menet	-3937
▁motor	-3938
▁naiki	-3939
▁osaka	-3940
▁padat	-3941
▁pagar	-3942
▁palsu	-3943
▁panik	-3944
▁papan	-3945
▁pasir	-3946
▁pegun	-3947
▁perek	-3948
▁pilek	-3949
▁poker	-3950
▁puisi	-3951
▁putra	-3952
▁ramai	-3953
▁receh	-3954
▁retak	-3955
▁rokok	-3956
▁sakti	-3957
▁sayur	-3958
▁segar	-3959
▁seksi	-3960
▁singa	-3961
▁situs	-3962
▁subuh	-3963
▁sumur	-3964
▁surga	-3965
▁sushi	-3966
▁susyi	-3967
▁tanya	-3968
▁tepuk	-3969
▁tiada	-3970
▁tinta	-3971
▁tomat	-3972
▁tubuh	-3973
▁zaman	-3974
ahankan	-3975
ampilan	-3976
anggang	-3977
angsung	-3978
atalkan	-3979
caranya	-3980
ekomend	-3981
eksinya	-3982
engaran	-3983
erjemah	-3984
iptakan	-3985
isahkan	-3986
jaksana	-3987
kulator	-3988
lakukan	-3989
okteran	-3990
temanmu	-3991
uangkan	-3992
yarakat	-3993
▁adikmu	-3994
▁anakmu	-3995
▁baruku	-3996
▁berapi	-3997
▁berkas	-3998
▁berker	-3999
▁bertep	-4000
▁betina	-4001
▁budaya	-4002
▁celana	-4003
▁diajak	-4004
▁gandum	-4005
▁gimana	-4006
▁goreng	-4007
▁handuk	-4008
▁hendak	-4009
▁ilmiah	-4010
▁kakimu	-4011
▁kantin	-4012
▁karpet	-4013
▁kelapa	-4014
▁kemeja	-4015
▁kencan	-4016
▁kencur	-4017
▁kerbau	-4018
▁kering	-4019
▁ketemu	-4020
▁kooper	-4021
▁kredit	-4022
▁kuatir	-4023
▁kuenya	-4024
▁kuliah	-4025
▁langka	-4026
▁layang	-4027
▁lelaki	-4028
▁lemari	-4029
▁lempar	-4030
▁lompat	-4031
▁lorong	-4032
▁memaks	-4033
▁membah	-4034
▁memuji	-4035
▁menamp	-4036
▁mengep	-4037
▁miliki	-4038
▁miskin	-4039
▁modern	-4040
▁nonton	-4041
▁pantas	-4042
▁parkir	-4043
▁pember	-4044
▁pemuda	-4045
▁penerb	-4046
▁pengec	-4047
▁persis	-4048
▁rahasi	-4049
▁remaja	-4050
▁remnya	-4051
▁renang	-4052
▁sarang	-4053
▁sendok	-4054
▁simpan	-4055
▁solusi	-4056
▁superm	-4057
▁tasnya	-4058
▁tembak	-4059
▁tembok	-4060
▁tergel	-4061
▁terjun	-4062
▁terkec	-4063
▁tujuan	-4064
▁tulang	-4065
▁umurmu	-4066
▁urusan	-4067
▁wortel	-4068
ahagiaan	-4069
barangmu	-4070
erikatan	-4071
mbangkan	-4072
undurkan	-4073
untungan	-4074
▁ambulan	-4075
▁berburu	-4076
▁berkali	-4077
▁berlaku	-4078
▁berpeng	-4079
▁brankas	-4080
▁cangkir	-4081
▁derajat	-4082
▁dibakar	-4083
▁dibalik	-4084
▁diberit	-4085
▁dihukum	-4086
▁diikuti	-4087
▁gigitan	-4088
▁gunanya	-4089
▁hatinya	-4090
▁jalanan	-4091
▁janggut	-4092
▁januari	-4093
▁jupiter	-4094
▁kalinya	-4095
▁kamulah	-4096
▁kelahir	-4097
▁kelasmu	-4098
▁kelinci	-4099
▁kenalan	-4100
▁kondisi	-4101
▁kroasia	-4102
▁kumbang	-4103
▁lacinya	-4104
▁lamanya	-4105
▁meledak	-4106
▁meludah	-4107
▁membenc	-4108
▁menekan	-4109
▁menggel	-4110
▁mengisi	-4111
▁menjauh	-4112
▁mentega	-4113
▁menular	-4114
▁menunda	-4115
▁menyala	-4116
▁menyapa	-4117
▁merebus	-4118
▁monoton	-4119
▁mukanya	-4120
▁mulutmu	-4121
▁narkoba	-4122
▁ngomong	-4123
▁nikmati	-4124
▁operasi	-4125
▁pegawai	-4126
▁perhati	-4127
▁perkata	-4128
▁perutku	-4129
▁popcorn	-4130
▁program	-4131
▁punyaku	-4132
▁ranjang	-4133
▁salinan	-4134
▁samping	-4135
▁sebesar	-4136
▁sebodoh	-4137
▁sebulan	-4138
▁seharga	-4139
▁sejajar	-4140
▁sekarat	-4141
▁selatan	-4142
▁selimut	-4143
▁senapan	-4144
▁sepatah	-4145
▁setahun	-4146
▁suratmu	-4147
▁tekanan	-4148
▁terburu	-4149
▁terdiam	-4150
▁terjaga	-4151
▁topinya	-4152
▁waktumu	-4153
encanakan	-4154
feksionis	-4155
kurangnya	-4156
▁andalkan	-4157
▁anginnya	-4158
▁antusias	-4159
▁aplikasi	-4160
▁badannya	-4161
▁berbagai	-4162
▁bergegas	-4163
▁berlibur	-4164
▁berpuasa	-4165
▁bersikap	-4166
▁disengat	-4167
▁dompetku	-4168
▁garamnya	-4169
▁gelasnya	-4170
▁haruskah	-4171
▁ingatkan	-4172
▁jelaskan	-4173
▁kalender	-4174
▁kameraku	-4175
▁karangan	-4176
▁kursinya	-4177
▁kutunggu	-4178
▁lilinnya	-4179
▁maskermu	-4180
▁masuknya	-4181
▁memegang	-4182
▁memenuhi	-4183
▁menambah	-4184
▁menelpon	-4185
▁menertaw	-4186
▁mengalir	-4187
▁mengecat	-4188
▁menunjuk	-4189
▁menyanyi	-4190
▁menyaran	-4191
▁menyetir	-4192
▁norwegia	-4193
▁pamannya	-4194
▁pasangan	-4195
▁pembunuh	-4196
▁penduduk	-4197
▁penyebab	-4198
▁perasaan	-4199
▁populasi	-4200
▁pulpenku	-4201
▁rambutku	-4202
▁rasional	-4203
▁religius	-4204
▁sakitnya	-4205
▁sebatang	-4206
▁seberang	-4207
▁sekurang	-4208
▁selembar	-4209
▁semangat	-4210
▁serahkan	-4211
▁sesegera	-4212
▁setinggi	-4213
▁silahkan	-4214
▁tanggung	-4215
▁tempatmu	-4216
▁tenggara	-4217
▁tentunya	-4218
▁terampil	-4219
▁terjatuh	-4220
▁terlebih	-4221
▁termasuk	-4222
▁terpilih	-4223
▁tetaplah	-4224
▁tidaklah	-4225
▁tiongkok	-4226
▁tunangan	-4227
▁anggurnya	-4228
▁bangunkan	-4229
▁berdering	-4230
▁berlanjut	-4231
▁bermaksud	-4232
▁bersandar	-4233
▁bertambah	-4234
▁bijaksana	-4235
▁dibongkar	-4236
▁dihormati	-4237
▁dinikmati	-4238
▁ditangkap	-4239
▁ditinggal	-4240
▁indonesia	-4241
▁jurusanmu	-4242
▁kebenaran	-4243
▁kebutuhan	-4244
▁keinginan	-4245
▁keracunan	-4246
▁ketiaknya	-4247
▁kulkasnya	-4248
▁lantainya	-4249
▁maksudnya	-4250
▁menciummu	-4251
▁menemuimu	-4252
▁mengganti	-4253
▁menggigit	-4254
▁menyakiti	-4255
▁nampaknya	-4256
▁pandangan	-4257
▁panggilan	-4258
▁pemasaran	-4259
▁penggemar	-4260
▁perbedaan	-4261
▁perkataan	-4262
▁pertamaku	-4263
▁pertolong	-4264
▁perubahan	-4265
▁pikiranmu	-4266
▁pinjamkan	-4267
▁rencanamu	-4268
▁sampaikan	-4269
▁sampingku	-4270
▁saudaraku	-4271
▁sungguhan	-4272
▁telanjang	-4273
▁tentangmu	-4274
▁terdengar	-4275
▁terganggu	-4276
▁tertabrak	-4277
▁tunggulah	-4278
▁bandaranya	-4279
▁belakangan	-4280
▁berbincang	-4281
▁berkendara	-4282
▁berpakaian	-4283
▁dinyatakan	-4284
▁diskusikan	-4285
▁fotografer	-4286
▁kalkulator	-4287
▁kebersihan	-4288
▁kedokteran	-4289
▁keluargamu	-4290
▁kembalilah	-4291
▁kendalikan	-4292
▁kooperatif	-4293
▁mangkuknya	-4294
▁masyarakat	-4295
▁memakannya	-4296
▁mencurigai	-4297
▁mendirikan	-4298
▁mengadakan	-4299
▁mengandung	-4300
▁mengangguk	-4301
▁mengapresi	-4302
▁mengerikan	-4303
▁menghubung	-4304
▁menolongku	-4305
▁menyetrika	-4306
▁menyukaimu	-4307
▁menyuruhmu	-4308
▁pegunungan	-4309
▁pendidikan	-4310
▁penerjemah	-4311
▁permintaan	-4312
▁ruangannya	-4313
▁sendirinya	-4314
▁tercengang	-4315
▁tergantung	-4316
▁terpanjang	-4317
▁tertangkap	-4318
ertimbangkan	-4319
▁berlangsung	-4320
▁berolahraga	-4321
▁dihancurkan	-4322
▁kebahagiaan	-4323
▁keputusanmu	-4324
▁konservatif	-4325
▁mataharinya	-4326
▁melupakanku	-4327
▁memanggilmu	-4328
▁memenangkan	-4329
▁memengaruhi	-4330
▁memperbarui	-4331
▁mencintaiku	-4332
▁menciptakan	-4333
▁meneleponmu	-4334
▁menemukanmu	-4335
▁mengajarkan	-4336
▁mengejutkan	-4337
▁menggantung	-4338
▁mengikutiku	-4339
▁menjawabnya	-4340
▁penerbangan	-4341
▁perilakunya	-4342
▁sembunyikan	-4343
▁supermarket	-4344
▁televisinya	-4345
▁diselamatkan	-4346
▁diselesaikan	-4347
▁melupakannya	-4348
▁membayangkan	-4349
▁membelikanku	-4350
▁memberikanmu	-4351
▁membiarkanmu	-4352
▁membuatkanmu	-4353
▁mengganggumu	-4354
▁menggantikan	-4355
▁mengundurkan	-4356
▁perempuannya	-4357
▁perfeksionis	-4358
▁perserikatan	-4359
▁berkonsultasi	-4360
▁berpengalaman	-4361
▁membingungkan	-4362
▁memikirkannya	-4363
▁mempercayaimu	-4364
▁merindukannya	-4365
▁pertanyaannya	-4366
▁berkonsentrasi	-4367
▁membangunkanku	-4368
▁mempercayainya	-4369
▁memperingatkan	-4370
▁memperkenalkan	-4371
▁mengandalkanmu	-4372
▁mengecewakanmu	-4373
▁mengerjakannya	-4374
▁menggunakannya	-4375
▁menyerahkannya	-4376
▁mempermainkanku	-4377
▁menginginkannya	-4378
▁meninggalkannya	-4379
-8	-4380
16	-4381
4.	-4382
5.	-4383
50	-4384
8.	-4385
bb	-4386
ch	-4387
ds	-4388
ey	-4389
ho	-4390
kr	-4391
le	-4392
me	-4393
ro	-4394
uf	-4395
xf	-4396
xi	-4397
▁(	-4398
▁i	-4399
wi	-4400
▁x	-4401
:00	-4402
ahi	-4403
aih	-4404
aju	-4405
akj	-4406
ami	-4407
aul	-4408
bal	-4409
ban	-4410
cip	-4411
daf	-4412
dag	-4413
den	-4414
ebr	-4415
enj	-4416
fat	-4417
gen	-4418
gna	-4419
hal	-4420
inv	-4421
iol	-4422
ius	-4423
jek	-4424
jer	-4425
jib	-4426
lar	-4427
les	-4428
lim	-4429
lop	-4430
los	-4431
lub	-4432
men	-4433
min	-4434
nai	-4435
obs	-4436
oda	-4437
ona	-4438
ord	-4439
ott	-4440
pam	-4441
pes	-4442
pil	-4443
rab	-4444
ret	-4445
sur	-4446
tan	-4447
tim	-4448
tom	-4449
tum	-4450
ufo	-4451
uit	-4452
upu	-4453
uti	-4454
val	-4455
wuj	-4456
yan	-4457
▁16	-4458
▁17	-4459
▁28	-4460
▁60	-4461
▁ai	-4462
▁aj	-4463
▁be	-4464
▁dj	-4465
▁he	-4466
▁ij	-4467
▁ik	-4468
▁op	-4469
▁ov	-4470
▁sm	-4471
▁us	-4472
aati	-4473
abar	-4474
abot	-4475
acam	-4476
adah	-4477
agam	-4478
aget	-4479
ahak	-4480
ajut	-4481
aktu	-4482
alut	-4483
amen	-4484
anto	-4485
apak	-4486
apel	-4487
apus	-4488
aris	-4489
aruk	-4490
asah	-4491
asar	-4492
asta	-4493
asuh	-4494
atat	-4495
aumu	-4496
ayar	-4497
ciku	-4498
cium	-4499
70.	-4500
daun	-4501
edip	-4502
egal	-4503
egar	-4504
eget	-4505
eher	-4506
ekad	-4507
ekuk	-4508
elaj	-4509
elku	-4510
elom	-4511
emas	-4512
emur	-4513
enam	-4514
enda	-4515
enov	-4516
ensi	-4517
eput	-4518
erib	-4519
erus	-4520
esak	-4521
eser	-4522
esid	-4523
esor	-4524
etis	-4525
giku	-4526
goda	-4527
hana	-4528
hari	-4529
hian	-4530
hima	-4531
hiri	-4532
idal	-4533
ikar	-4534
ikot	-4535
iksa	-4536
iman	-4537
imba	-4538
ingi	-4539
ipat	-4540
irmu	-4541
isat	-4542
itan	-4543
kent	-4544
lain	-4545
lang	-4546
laus	-4547
loji	-4548
luas	-4549
mbut	-4550
mpor	-4551
nton	-4552
obos	-4553
olog	-4554
omba	-4555
onik	-4556
opos	-4557
oror	-4558
osur	-4559
otes	-4560
otol	-4561
pati	-4562
pert	-4563
pint	-4564
port	-4565
rono	-4566
sial	-4567
siap	-4568
sing	-4569
tama	-4570
uduh	-4571
ugat	-4572
ukar	-4573
uler	-4574
umor	-4575
umpa	-4576
unan	-4577
unus	-4578
unyi	-4579
usan	-4580
▁100	-4581
▁188	-4582
▁aks	-4583
▁amp	-4584
▁aut	-4585
▁bab	-4586
▁ban	-4587
▁bed	-4588
▁cab	-4589
▁cek	-4590
▁col	-4591
▁cow	-4592
▁cuc	-4593
▁day	-4594
▁del	-4595
▁dog	-4596
▁fac	-4597
▁fis	-4598
▁geo	-4599
diam	-4600
kura	-4601
paru	-4602
▁gub	-4603
▁gue	-4604
▁hel	-4605
▁hib	-4606
▁jal	-4607
▁kad	-4608
▁kaw	-4609
▁kim	-4610
▁kre	-4611
▁lim	-4612
▁mam	-4613
▁mim	-4614
▁nab	-4615
▁nap	-4616
▁nel	-4617
▁nil	-4618
▁pai	-4619
▁pbb	-4620
▁pec	-4621
▁pep	-4622
▁pom	-4623
▁puk	-4624
▁ras	-4625
▁reb	-4626
▁rel	-4627
▁rom	-4628
▁sew	-4629
▁sir	-4630
▁sub	-4631
▁tin	-4632
▁tol	-4633
▁tud	-4634
▁ufo	-4635
▁und	-4636
▁vas	-4637
▁waw	-4638
▁web	-4639
▁yah	-4640
▁yuk	-4641
adani	-4642
ajuan	-4643
aktir	-4644
akuti	-4645
alnya	-4646
amaan	-4647
ancam	-4648
andan	-4649
angku	-4650
anjak	-4651
antam	-4652
antan	-4653
apura	-4654
arian	-4655
asana	-4656
asiku	-4657
atimu	-4658
atkan	-4659
ausan	-4660
beran	-4661
eluar	-4662
emani	-4663
ennya	-4664
esaan	-4665
esiko	-4666
eting	-4667
grafi	-4668
harga	-4669
idiki	-4670
ikmah	-4671
ilkan	-4672
impor	-4673
incir	-4674
istis	-4675
jabat	-4676
jahit	-4677
jelas	-4678
kotak	-4679
lengk	-4680
menya	-4681
minum	-4682
muara	-4683
nunda	-4684
oalan	-4685
odium	-4686
ompok	-4687
ontek	-4688
ontoh	-4689
osong	-4690
sitif	-4691
teman	-4692
uasai	-4693
ubkan	-4694
ukses	-4695
uksit	-4696
uling	-4697
ulisi	-4698
umbus	-4699
32.	-4700
▁ahl	-4701
▁hei	-4702
akdir	-4703
ebook	-4704
kaido	-4705
orgol	-4706
umlah	-4707
ungku	-4708
uriga	-4709
usaji	-4710
uyung	-4711
wujud	-4712
yaris	-4713
yukur	-4714
▁2013	-4715
▁adat	-4716
▁akun	-4717
▁alah	-4718
▁arit	-4719
▁atom	-4720
▁baga	-4721
▁besi	-4722
▁bisu	-4723
▁buny	-4724
▁data	-4725
▁daya	-4726
▁debu	-4727
▁diar	-4728
▁dibi	-4729
▁diet	-4730
▁disa	-4731
▁dong	-4732
▁efek	-4733
▁elek	-4734
▁esok	-4735
▁faks	-4736
▁ginj	-4737
▁gitu	-4738
▁gram	-4739
▁hamp	-4740
▁hidr	-4741
▁inci	-4742
▁kamb	-4743
▁karb	-4744
▁kees	-4745
▁keku	-4746
▁kewa	-4747
▁kode	-4748
▁koki	-4749
▁kuno	-4750
▁kura	-4751
▁kutu	-4752
▁lasa	-4753
▁lift	-4754
▁lisa	-4755
▁lonc	-4756
▁meme	-4757
▁merd	-4758
▁mimp	-4759
▁mint	-4760
▁mona	-4761
▁nept	-4762
▁paka	-4763
▁palu	-4764
▁paus	-4765
▁perj	-4766
▁pipi	-4767
▁pura	-4768
▁rabi	-4769
▁reda	-4770
▁sant	-4771
▁segi	-4772
▁sewa	-4773
▁suci	-4774
▁tali	-4775
▁teks	-4776
▁tuju	-4777
▁ubah	-4778
▁ubur	-4779
▁ultr	-4780
▁voli	-4781
▁wart	-4782
▁yoga	-4783
abotan	-4784
adikan	-4785
aduhan	-4786
ajengk	-4787
ajikan	-4788
akatan	-4789
alitas	-4790
anakmu	-4791
anduan	-4792
anggar	-4793
angkal	-4794
apakah	-4795
arawan	-4796
asikan	-4797
atasan	-4798
atiwan	-4799
▁"16	-4800
▁oxf	-4801
surat	-4802
▁aids	-4803
▁febr	-4804
▁klub	-4805
▁xilo	-4806
daftar	-4807
eganya	-4808
elawar	-4809
emanan	-4810
enggot	-4811
engkal	-4812
engkel	-4813
entian	-4814
erdeka	-4815
erhana	-4816
esiden	-4817
etahui	-4818
ingkuh	-4819
inilah	-4820
intasi	-4821
isahan	-4822
isilin	-4823
katamu	-4824
keping	-4825
kirkan	-4826
lakimu	-4827
landia	-4828
namamu	-4829
obatan	-4830
obsesi	-4831
oduksi	-4832
ontrol	-4833
oposal	-4834
patuhi	-4835
tronik	-4836
ujukan	-4837
ujuran	-4838
ukakan	-4839
umbang	-4840
umpang	-4841
umuran	-4842
umurmu	-4843
uncang	-4844
unggah	-4845
ungkus	-4846
warnai	-4847
yatnya	-4848
▁1888.	-4849
▁3.000	-4850
▁aktif	-4851
▁album	-4852
▁antik	-4853
▁artik	-4854
▁autis	-4855
▁awasi	-4856
▁badut	-4857
▁bakar	-4858
▁balas	-4859
▁banjo	-4860
▁batas	-4861
▁biduk	-4862
▁bosku	-4863
▁botak	-4864
▁budak	-4865
▁ceria	-4866
▁claus	-4867
▁demam	-4868
▁dilah	-4869
▁dimas	-4870
▁dinas	-4871
▁diser	-4872
▁dokum	-4873
▁entah	-4874
▁esper	-4875
▁festi	-4876
▁finan	-4877
▁ganti	-4878
▁gemar	-4879
▁hebat	-4880
▁horor	-4881
▁humor	-4882
▁idiom	-4883
▁impor	-4884
▁intan	-4885
▁jamku	-4886
▁jamur	-4887
▁janji	-4888
▁jenuh	-4889
▁kabur	-4890
▁kabut	-4891
▁kaget	-4892
▁kamis	-4893
▁kanji	-4894
▁kapas	-4895
▁kasir	-4896
▁kasus	-4897
▁kejah	-4898
▁kejam	-4899
▁kemau	-4900
▁kenya	-4901
▁keran	-4902
▁kerib	-4903
▁keter	-4904
▁kidal	-4905
▁kirim	-4906
▁komik	-4907
▁korea	-4908
▁korek	-4909
▁lebar	-4910
▁leher	-4911
▁lelap	-4912
▁letak	-4913
▁lokal	-4914
▁lurus	-4915
▁macet	-4916
▁malah	-4917
▁masak	-4918
▁menca	-4919
▁mengu	-4920
▁meski	-4921
▁mesti	-4922
▁nafsu	-4923
▁namun	-4924
▁nyawa	-4925
▁overd	-4926
▁palem	-4927
▁pasar	-4928
▁pasta	-4929
▁patuh	-4930
▁pemak	-4931
▁pemer	-4932
▁pilot	-4933
▁prnya	-4934
▁putar	-4935
▁putus	-4936
▁rangk	-4937
▁ratus	-4938
▁rebus	-4939
▁ribut	-4940
▁rimba	-4941
▁rinci	-4942
▁roger	-4943
▁rumit	-4944
▁rusia	-4945
▁sabuk	-4946
▁sains	-4947
▁salam	-4948
▁santa	-4949
▁sejen	-4950
▁selai	-4951
▁senam	-4952
▁sikat	-4953
▁sopan	-4954
▁spesi	-4955
▁struk	-4956
▁suami	-4957
▁sukar	-4958
▁tangk	-4959
▁tango	-4960
▁tawar	-4961
▁tegas	-4962
▁tekun	-4963
▁teori	-4964
▁terow	-4965
▁timur	-4966
▁tingg	-4967
▁tipis	-4968
▁udang	-4969
▁usaha	-4970
▁veget	-4971
▁wajan	-4972
▁wajar	-4973
▁warga	-4974
▁wisat	-4975
afalkan	-4976
akannya	-4977
alahkan	-4978
asarkan	-4979
biarkan	-4980
bincang	-4981
bintang	-4982
ebaskan	-4983
elahkan	-4984
elajahi	-4985
elihara	-4986
eliling	-4987
eluaran	-4988
emanimu	-4989
enangan	-4990
enovasi	-4991
entukan	-4992
eputasi	-4993
gunakan	-4994
hatilah	-4995
ibatkan	-4996
icaraan	-4997
ingatan	-4998
isihkan	-4999
isikkan	-5000
izinkan	-5001
lukisan	-5002
masalah	-5003
onomian	-5004
ormatan	-5005
pergian	-5006
selamat	-5007
siapkan	-5008
tetangg	-5009
ubungan	-5010
ujurnya	-5011
uksesan	-5012
umumkan	-5013
unjukan	-5014
ustrasi	-5015
▁ajaran	-5016
▁amplop	-5017
▁anggap	-5018
▁arloji	-5019
▁asalmu	-5020
▁atasan	-5021
▁ayolah	-5022
▁bagimu	-5023
▁bajumu	-5024
▁bangku	-5025
▁banjir	-5026
▁bannya	-5027
▁batang	-5028
▁baunya	-5029
▁berken	-5030
▁berski	-5031
▁betapa	-5032
▁boling	-5033
▁brosur	-5034
▁bukuku	-5035
▁cacing	-5036
▁cahaya	-5037
▁campur	-5038
▁caraku	-5039
▁caramu	-5040
▁cermin	-5041
▁dayung	-5042
▁delima	-5043
▁dibuka	-5044
▁dicuci	-5045
▁diduga	-5046
▁dirunt	-5047
▁disana	-5048
▁diungk	-5049
▁dollar	-5050
▁ekspek	-5051
▁energi	-5052
▁enggak	-5053
▁enggan	-5054
▁fisika	-5055
▁gajian	-5056
▁gejala	-5057
▁gelang	-5058
▁gigiku	-5059
▁hancur	-5060
▁harimu	-5061
▁hatimu	-5062
▁hidung	-5063
▁hikmah	-5064
▁impian	-5065
▁jagung	-5066
▁jenewa	-5067
▁kaleng	-5068
▁kaulah	-5069
▁kausku	-5070
▁kental	-5071
▁kolong	-5072
▁kompas	-5073
▁kontes	-5074
▁kostum	-5075
▁kukira	-5076
▁kukuku	-5077
▁lamaku	-5078
▁lamamu	-5079
▁lembar	-5080
▁loteng	-5081
▁matang	-5082
▁melamb	-5083
▁melang	-5084
▁melodi	-5085
▁menakj	-5086
▁menara	-5087
▁mengaw	-5088
▁mengil	-5089
▁mengis	-5090
▁mengus	-5091
▁menumb	-5092
▁meraih	-5093
▁miknya	-5094
▁miller	-5095
▁minyak	-5096
▁mukamu	-5097
▁mundur	-5098
▁nyaris	-5099
▁oxford	-5100
▁pagoda	-5101
▁pahami	-5102
▁pelaku	-5103
▁perdag	-5104
▁piring	-5105
▁protes	-5106
▁puding	-5107
▁pusing	-5108
▁rantai	-5109
▁reaksi	-5110
▁rebung	-5111
▁rumpun	-5112
▁satpam	-5113
▁seakan	-5114
▁sejati	-5115
▁sekuat	-5116
▁semang	-5117
▁senyum	-5118
▁sepupu	-5119
▁seumur	-5120
▁seusia	-5121
▁sirkus	-5122
▁subjek	-5123
▁sukses	-5124
▁supaya	-5125
▁swasta	-5126
▁takdir	-5127
▁takkan	-5128
▁tebing	-5129
▁tehnya	-5130
▁tesnya	-5131
▁timbal	-5132
▁tonton	-5133
▁tumbuh	-5134
▁uangku	-5135
▁undang	-5136
▁viking	-5137
adwalkan	-5138
andalkan	-5139
anggapan	-5140
angkanya	-5141
anjutkan	-5142
arkannya	-5143
elombang	-5144
embangan	-5145
endaraan	-5146
enturkan	-5147
eritakan	-5148
impannya	-5149
lampunya	-5150
obaannya	-5151
osongkan	-5152
pintunya	-5153
tahankan	-5154
umpahkan	-5155
▁adiknya	-5156
▁ahlinya	-5157
▁aprikot	-5158
▁awalnya	-5159
▁bacalah	-5160
▁badanku	-5161
▁badanmu	-5162
▁bagilah	-5163
▁baiklah	-5164
▁baiknya	-5165
▁bajunya	-5166
▁bauksit	-5167
▁belanja	-5168
▁bencana	-5169
▁bengkok	-5170
▁bergaul	-5171
▁berjudi	-5172
▁berlalu	-5173
▁berlian	-5174
▁bersiul	-5175
▁bertiga	-5176
▁bimbang	-5177
▁biologi	-5178
▁bukanya	-5179
▁condong	-5180
▁datanya	-5181
▁depanku	-5182
▁diambil	-5183
▁dibayar	-5184
▁dibuang	-5185
▁didalam	-5186
▁dididik	-5187
▁diimpor	-5188
▁diminta	-5189
▁dongeng	-5190
▁ekonomi	-5191
▁evolusi	-5192
▁gajinya	-5193
▁gembira	-5194
▁gerhana	-5195
▁hadapan	-5196
▁hadirin	-5197
▁hiburan	-5198
▁hindari	-5199
▁ilmuwan	-5200
▁jagalah	-5201
▁jaketmu	-5202
▁janjimu	-5203
▁jauhkan	-5204
▁jutawan	-5205
▁kakakmu	-5206
▁kakekku	-5207
▁kampung	-5208
▁kandang	-5209
▁kantung	-5210
▁kapalku	-5211
▁katapun	-5212
▁kawanku	-5213
▁kejutan	-5214
▁kekalah	-5215
▁kelasku	-5216
▁kentang	-5217
▁kenyang	-5218
▁kerasmu	-5219
▁kesehat	-5220
▁kewajib	-5221
▁koleksi	-5222
▁koneksi	-5223
▁kontrak	-5224
▁kreatif	-5225
▁kuberit	-5226
▁kubilai	-5227
▁kulihat	-5228
▁kunciku	-5229
▁kursimu	-5230
▁lamakah	-5231
▁lasagna	-5232
▁latihan	-5233
▁listrik	-5234
▁makanya	-5235
▁mamalia	-5236
▁manajer	-5237
▁meeting	-5238
▁melatih	-5239
▁meletus	-5240
▁membaik	-5241
▁memerah	-5242
▁memeras	-5243
▁memilik	-5244
▁memohon	-5245
▁menaati	-5246
▁menatap	-5247
▁menawan	-5248
▁menetap	-5249
▁menikam	-5250
▁menuduh	-5251
▁merajut	-5252
▁merpati	-5253
▁mimisan	-5254
▁negatif	-5255
▁ngapain	-5256
▁novelis	-5257
▁pamanku	-5258
▁pamanmu	-5259
▁pelatih	-5260
▁pemabuk	-5261
▁pemadam	-5262
▁pemalas	-5263
▁pemanas	-5264
▁pemandu	-5265
▁pemberh	-5266
▁pemburu	-5267
▁pencuri	-5268
▁perawat	-5269
▁perokok	-5270
▁pisaumu	-5271
▁pukulan	-5272
▁radiomu	-5273
▁reguler	-5274
▁relatif	-5275
▁rupanya	-5276
▁saatnya	-5277
▁sayalah	-5278
▁sebelas	-5279
▁sebotol	-5280
▁sekeras	-5281
▁semacam	-5282
▁seragam	-5283
▁setidak	-5284
▁siangmu	-5285
▁singkat	-5286
▁suasana	-5287
▁susunya	-5288
▁tagihan	-5289
▁tangkap	-5290
▁terkuat	-5291
▁terusan	-5292
▁tidurku	-5293
▁tiketku	-5294
▁tingkah	-5295
▁toleran	-5296
▁tradisi	-5297
▁traktir	-5298
▁trompet	-5299
▁tuduhan	-5300
▁ucapkan	-5301
▁ularnya	-5302
▁umurnya	-5303
▁upacara	-5304
▁wajahku	-5305
▁xilofon	-5306
ajengking	-5307
beraninya	-5308
elesaikan	-5309
eritahuan	-5310
pertemuan	-5311
ungkinkan	-5312
▁alamatmu	-5313
▁ambulans	-5314
▁anggapan	-5315
▁angkatan	-5316
▁anjingmu	-5317
▁bagaikan	-5318
▁bebaskan	-5319
▁berambut	-5320
▁beranjak	-5321
▁bercerai	-5322
▁bercukur	-5323
▁berdebat	-5324
▁berganti	-5325
▁bergeser	-5326
▁berhantu	-5327
▁berjabat	-5328
▁berjemur	-5329
▁berjumpa	-5330
▁berkedip	-5331
▁berkemah	-5332
▁berlayar	-5333
▁bermuara	-5334
▁bernapas	-5335
▁berpisah	-5336
▁berputar	-5337
▁bersabar	-5338
▁bertepuk	-5339
▁bertugas	-5340
▁berutang	-5341
▁betulkan	-5342
▁botolnya	-5343
▁bubungan	-5344
▁bunyinya	-5345
▁cacatnya	-5346
▁campuran	-5347
▁columbus	-5348
▁dalamnya	-5349
▁depannya	-5350
▁diborgol	-5351
▁diparkir	-5352
▁dipatuhi	-5353
▁dipegang	-5354
▁ditembak	-5355
▁doktermu	-5356
▁facebook	-5357
▁februari	-5358
▁festival	-5359
▁geografi	-5360
▁golongan	-5361
▁hokkaido	-5362
▁ingatlah	-5363
▁jadwalku	-5364
▁kakaknya	-5365
▁kantorku	-5366
▁kapankah	-5367
▁kebaikan	-5368
▁keesokan	-5369
▁kehausan	-5370
▁kekayaan	-5371
▁kekuatan	-5372
▁kelasnya	-5373
▁kelompok	-5374
▁kemajuan	-5375
▁kemejaku	-5376
▁kenaikan	-5377
▁kencanmu	-5378
▁keretaku	-5379
▁kesamaan	-5380
▁kesukaan	-5381
▁kilogram	-5382
▁korannya	-5383
▁kotaknya	-5384
▁kritikan	-5385
▁kucingku	-5386
▁lokernya	-5387
▁makanlah	-5388
▁malamnya	-5389
▁mandarin	-5390
▁mandinya	-5391
▁masuklah	-5392
▁memarkir	-5393
▁memboleh	-5394
▁mencapai	-5395
▁mencetak	-5396
▁mendarat	-5397
▁mendekat	-5398
▁mendesak	-5399
▁mengajak	-5400
▁mengelap	-5401
▁mengetik	-5402
▁mengukur	-5403
▁menuntut	-5404
▁menyerap	-5405
▁mewarnai	-5406
▁mintalah	-5407
▁neneknya	-5408
▁neptunus	-5409
▁november	-5410
▁pakailah	-5411
▁panasnya	-5412
▁pastinya	-5413
▁pecahkan	-5414
▁pejamkan	-5415
▁pengecut	-5416
▁penjelas	-5417
▁perginya	-5418
▁perilaku	-5419
▁perlengk	-5420
▁pianonya	-5421
▁pohonnya	-5422
▁presiden	-5423
▁produksi	-5424
▁profesor	-5425
▁proposal	-5426
▁putuskan	-5427
▁romantis	-5428
▁sarannya	-5429
▁sehingga	-5430
▁sembrono	-5431
▁sensitif	-5432
▁sepatuku	-5433
▁serangan	-5434
▁susahnya	-5435
▁tanahnya	-5436
▁tanpanya	-5437
▁tembikar	-5438
▁terbatas	-5439
▁terbenam	-5440
▁terdalam	-5441
▁terindah	-5442
▁terkecil	-5443
▁terkesan	-5444
▁terpaksa	-5445
▁terulang	-5446
▁terwujud	-5447
▁tidurlah	-5448
▁tindakan	-5449
▁tujuanmu	-5450
▁tumbuhan	-5451
▁tutupnya	-5452
▁udaranya	-5453
▁urusanmu	-5454
angunannya	-5455
kentangnya	-5456
lihatannya	-5457
▁akibatnya	-5458
▁barangnya	-5459
▁beginilah	-5460
▁begitulah	-5461
▁berbaring	-5462
▁bercerita	-5463
▁berciuman	-5464
▁berdandan	-5465
▁berhutang	-5466
▁berkemudi	-5467
▁berkencan	-5468
▁berkeping	-5469
▁berkumpul	-5470
▁berondong	-5471
▁bersamaan	-5472
▁bersihkan	-5473
▁bersumpah	-5474
▁bersyukur	-5475
▁bicaranya	-5476
▁ceritanya	-5477
▁datangnya	-5478
▁diajarkan	-5479
▁diberikan	-5480
▁diizinkan	-5481
▁ditujukan	-5482
▁esperanto	-5483
▁finansial	-5484
▁frustrasi	-5485
▁gejalanya	-5486
▁harapanmu	-5487
▁hidungnya	-5488
▁inggrismu	-5489
▁instrumen	-5490
▁janganlah	-5491
▁jumlahkan	-5492
▁kantongmu	-5493
▁kapasitas	-5494
▁kecanduan	-5495
▁kedalaman	-5496
▁kegaduhan	-5497
▁kejahatan	-5498
▁kejujuran	-5499
▁kelelawar	-5500
▁keluarnya	-5501
▁kembalian	-5502
▁kemerdeka	-5503
▁kendaraan	-5504
▁keponakan	-5505
▁keributan	-5506
▁keselamat	-5507
▁konsernya	-5508
▁kuberikan	-5509
▁kuketahui	-5510
▁lanjutkan	-5511
▁masalahmu	-5512
▁melainkan	-5513
▁melanggar	-5514
▁melintasi	-5515
▁melukaimu	-5516
▁memakanmu	-5517
▁memandang	-5518
▁membilang	-5519
▁memelukku	-5520
▁memintamu	-5521
▁menasihat	-5522
▁mendingan	-5523
▁mendukung	-5524
▁menerobos	-5525
▁mengantuk	-5526
▁menggaruk	-5527
▁mengimpor	-5528
▁mengkhian	-5529
▁menguasai	-5530
▁menyambut	-5531
▁menyengat	-5532
▁menyerang	-5533
▁menyetuju	-5534
▁menyirami	-5535
▁menyontek	-5536
▁meragukan	-5537
▁nabatiwan	-5538
▁overdosis	-5539
▁pantainya	-5540
▁pelayanan	-5541
▁pemberani	-5542
▁penderita	-5543
▁penisilin	-5544
▁pensilnya	-5545
▁perabotan	-5546
▁perangkat	-5547
▁perbuatan	-5548
▁perhatian	-5549
▁permadani	-5550
▁persoalan	-5551
▁pertanian	-5552
▁pidatonya	-5553
▁piringnya	-5554
▁politikus	-5555
▁pramusaji	-5556
▁prancisku	-5557
▁rakyatnya	-5558
▁sarangnya	-5559
▁saudaramu	-5560
▁sederhana	-5561
▁sejarawan	-5562
▁sekalipun	-5563
▁singapura	-5564
▁tampaknya	-5565
▁teleponmu	-5566
▁terbaring	-5567
▁tercantik	-5568
▁tergenang	-5569
▁terobsesi	-5570
▁toiletnya	-5571
▁wortelnya	-5572
▁belajarlah	-5573
▁belakangmu	-5574
▁berguncang	-5575
▁berjenggot	-5576
▁berjongkok	-5577
▁berpergian	-5578
▁bersiaplah	-5579
▁beruangnya	-5580
▁diberitahu	-5581
▁dibutuhkan	-5582
▁dihabiskan	-5583
▁dilahirkan	-5584
▁diperlukan	-5585
▁dipisahkan	-5586
▁disalahkan	-5587
▁dokumennya	-5588
▁dokumenter	-5589
▁elektronik	-5590
▁inggrisnya	-5591
▁instruktur	-5592
▁kacamataku	-5593
▁keadaannya	-5594
▁keberanian	-5595
▁kebisingan	-5596
▁kehormatan	-5597
▁kesuksesan	-5598
▁keuntungan	-5599
▁koreksinya	-5600
▁melelahkan	-5601
▁melepaskan	-5602
▁memahamiku	-5603
▁memaksanya	-5604
▁memastikan	-5605
▁membacanya	-5606
▁membawakan	-5607
▁membawanya	-5608
▁membenciku	-5609
▁membuatkan	-5610
▁membukakan	-5611
▁membukanya	-5612
▁membunuhmu	-5613
▁memejamkan	-5614
▁memeluknya	-5615
▁memperoleh	-5616
▁menantikan	-5617
▁mencarikan	-5618
▁menemanimu	-5619
▁mengadopsi	-5620
▁mengakhiri	-5621
▁mengganggu	-5622
▁menghalang	-5623
▁menghitung	-5624
▁mengiringi	-5625
▁mengunggah	-5626
▁mengunjung	-5627
▁mengurangi	-5628
▁menjauhlah	-5629
▁menteganya	-5630
▁menuangkan	-5631
▁menyatakan	-5632
▁menyelamat	-5633
▁menyukaiku	-5634
▁merekomend	-5635
▁meremehkan	-5636
▁merenovasi	-5637
▁minumannya	-5638
▁pakaiannya	-5639
▁panggilkan	-5640
▁pemerintah	-5641
▁penampilan	-5642
▁pendapatku	-5643
▁pengaturan	-5644
▁pentingnya	-5645
▁perdamaian	-5646
▁peringatan	-5647
▁pertemanan	-5648
▁pikirannya	-5649
▁punggungku	-5650
▁ranjangnya	-5651
▁sejujurnya	-5652
▁seluruhnya	-5653
▁semestinya	-5654
▁tagihannya	-5655
▁tergeletak	-5656
▁terowongan	-5657
▁tersandung	-5658
▁tulisannya	-5659
▁vegetarian	-5660
▁beranggapan	-5661
▁berkeliling	-5662
▁berkeringat	-5663
▁bersemangat	-5664
▁dijadwalkan	-5665
▁dikelilingi	-5666
▁diruntuhkan	-5667
▁diungkapkan	-5668
▁hubungannya	-5669
▁kemampuanku	-5670
▁keponakanku	-5671
▁kesalahanmu	-5672
▁kesepakatan	-5673
▁khawatirkan	-5674
▁komputernya	-5675
▁melanjutkan	-5676
▁memaafkanmu	-5677
▁membatalkan	-5678
▁membayarnya	-5679
▁membiasakan	-5680
▁membisikkan	-5681
▁membujuknya	-5682
▁memindahkan	-5683
▁meminjamkan	-5684
▁memproduksi	-5685
▁menakjubkan	-5686
▁menambahkan	-5687
▁menembakkan	-5688
▁mengajarimu	-5689
▁mengecilkan	-5690
▁mengejarnya	-5691
▁menggelikan	-5692
▁menghindari	-5693
▁menghormati	-5694
▁mengingatmu	-5695
▁mengirimiku	-5696
▁mengizinkan	-5697
▁mengurusnya	-5698
▁menikahinya	-5699
▁menumbuhkan	-5700
▁menyakitimu	-5701
▁menyakitkan	-5702
▁menyediakan	-5703
▁menyedihkan	-5704
▁menyelidiki	-5705
▁menyemangat	-5706
▁menyisihkan	-5707
▁pelajarilah	-5708
▁pembicaraan	-5709
▁pendengaran	-5710
▁pengeluaran	-5711
▁peningkatan	-5712
▁penyebabnya	-5713
▁perdagangan	-5714
▁perkataanmu	-5715
▁pertunjukan	-5716
▁punggungnya	-5717
▁bergelombang	-5718
▁berselingkuh	-5719
▁dilaksanakan	-5720
▁ditinggalkan	-5721
▁kalajengking	-5722
▁kebenarannya	-5723
▁kelahirannya	-5724
▁melaksanakan	-5725
▁melindungimu	-5726
▁memanggilnya	-5727
▁membahayakan	-5728
▁membawakanku	-5729
▁memercayaiku	-5730
▁memercayaimu	-5731
▁memperlambat	-5732
▁memungkinkan	-5733
▁menceritakan	-5734
▁menemukannya	-5735
▁menertawakan	-5736
▁mengambilnya	-5737
▁mengandalkan	-5738
▁mengharapkan	-5739
▁mengingatkan	-5740
▁mengosongkan	-5741
▁mengundangku	-5742
▁menyadarinya	-5743
▁menyentuhnya	-5744
▁menyimpannya	-5745
▁meremehkanku	-5746
▁merencanakan	-5747
▁merindukanmu	-5748
▁perbedaannya	-5749
▁percobaannya	-5750
▁perekonomian	-5751
▁perkembangan	-5752
▁pertanyaanmu	-5753
▁antusiasmenya	-5754
▁kecantikannya	-5755
▁kuberitahukan	-5756
▁membelikannya	-5757
▁membiarkannya	-5758
▁memperlakukan	-5759
▁mempermainkan	-5760
▁mempersiapkan	-5761
▁mengakibatkan	-5762
▁menghilangkan	-5763
▁mengizinkanku	-5764
▁menunjukkanku	-5765
▁pemberhentian	-5766
▁pemberitahuan	-5767
▁pernikahannya	-5768
▁ditandatangani	-5769
▁kemungkinannya	-5770
▁menghentikanku	-5771
▁menghubunginya	-5772
▁menjelaskannya	-5773
▁menunjukkannya	-5774
▁menyarankannya	-5775
▁pembangunannya	-5776
▁perlengkapanmu	-5777
▁mempermalukanku	-5778
▁mengandalkannya	-5779
▁permasalahannya	-5780
!"	-5781
!?	-5782
"?	-5783
).	-5784
+.	-5785
-2	-5786
-6	-5787
0-	-5788
1.	-5789
10	-5790
12	-5791
22	-5792
27	-5793
28	-5794
3!	-5795
7.	-5796
9%	-5797
ck	-5798
co	-5799
'.	-5800
bu	-5801
dn	-5802
ef	-5803
ge	-5804
ha	-5805
he	-5806
hm	-5807
hy	-5808
ie	-5809
iv	-5810
je	-5811
ko	-5812
ly	-5813
nn	-5814
of	-5815
oj	-5816
qr	-5817
re	-5818
ry	-5819
sg	-5820
so	-5821
sr	-5822
sy	-5823
ui	-5824
wo	-5825
yn	-5826
▁,	-5827
▁.	-5828
▁9	-5829
30,	-5830
300	-5831
ahe	-5832
ail	-5833
alm	-5834
als	-5835
aly	-5836
amm	-5837
apu	-5838
arb	-5839
art	-5840
ash	-5841
asl	-5842
ate	-5843
avy	-5844
bar	-5845
bay	-5846
ber	-5847
bku	-5848
cer	-5849
cuc	-5850
day	-5851
der	-5852
eas	-5853
eba	-5854
een	-5855
eik	-5856
ela	-5857
ele	-5858
emi	-5859
eon	-5860
ert	-5861
eta	-5862
fet	-5863
fku	-5864
gae	-5865
gam	-5866
gap	-5867
gia	-5868
giv	-5869
gun	-5870
ham	-5871
hch	-5872
his	-5873
hur	-5874
hyt	-5875
iak	-5876
ikr	-5877
ine	-5878
ink	-5879
ino	-5880
ite	-5881
iun	-5882
iup	-5883
iya	-5884
kek	-5885
ken	-5886
kep	-5887
lem	-5888
lob	-5889
lor	-5890
mem	-5891
nah	-5892
nih	-5893
nod	-5894
oke	-5895
oko	-5896
oku	-5897
opi	-5898
ose	-5899
des	-5900
gir	-5901
ilh	-5902
neg	-5903
par	-5904
rai	-5905
raz	-5906
red	-5907
rib	-5908
rid	-5909
rus	-5910
sem	-5911
sia	-5912
sik	-5913
sit	-5914
sun	-5915
tai	-5916
tal	-5917
til	-5918
tis	-5919
ual	-5920
ubi	-5921
ult	-5922
upi	-5923
utr	-5924
vis	-5925
wah	-5926
win	-5927
wit	-5928
xas	-5929
yah	-5930
yal	-5931
yaw	-5932
yik	-5933
zal	-5934
zel	-5935
▁15	-5936
▁2,	-5937
▁24	-5938
▁25	-5939
▁32	-5940
▁8:	-5941
▁ah	-5942
▁bl	-5943
▁co	-5944
▁cr	-5945
▁dw	-5946
▁el	-5947
▁ho	-5948
▁hp	-5949
▁ih	-5950
▁je	-5951
▁lu	-5952
▁mp	-5953
▁or	-5954
▁sc	-5955
▁ta	-5956
▁tk	-5957
▁uk	-5958
▁yo	-5959
▁zo	-5960
28-6	-5961
:30,	-5962
abel	-5963
abil	-5964
adat	-5965
aden	-5966
adir	-5967
aduk	-5968
agus	-5969
ahal	-5970
aing	-5971
akal	-5972
akas	-5973
akya	-5974
alat	-5975
alon	-5976
amas	-5977
amit	-5978
anan	-5979
anen	-5980
anik	-5981
anis	-5982
anye	-5983
apah	-5984
apar	-5985
arab	-5986
arak	-5987
aras	-5988
ardo	-5989
aren	-5990
ario	-5991
arum	-5992
ater	-5993
atik	-5994
awin	-5995
ayap	-5996
ayuh	-5997
beri	-5998
cari	-5999
45.	-6000
aii	-6001
get	-6002
met	-6003
mon	-6004
son	-6005
zim	-6006
▁ir	-6007
amai	-6008
anks	-6009
arut	-6010
ator	-6011
bola	-6012
daya	-6013
dion	-6014
edis	-6015
efin	-6016
ekas	-6017
ekku	-6018
ekul	-6019
elap	-6020
elit	-6021
elmu	-6022
elus	-6023
emen	-6024
emer	-6025
emil	-6026
emis	-6027
ence	-6028
endi	-6029
engs	-6030
enos	-6031
enun	-6032
enus	-6033
eong	-6034
eral	-6035
eren	-6036
erum	-6037
esin	-6038
esku	-6039
etku	-6040
etul	-6041
gigi	-6042
heit	-6043
hira	-6044
hurt	-6045
idol	-6046
ihak	-6047
ihal	-6048
ihir	-6049
ijik	-6050
ikin	-6051
ilam	-6052
ilas	-6053
ilir	-6054
ilki	-6055
ilom	-6056
imal	-6057
inah	-6058
inap	-6059
iner	-6060
ingk	-6061
inis	-6062
ipel	-6063
ipta	-6064
irim	-6065
iros	-6066
irus	-6067
isis	-6068
isti	-6069
itab	-6070
itis	-6071
itur	-6072
kart	-6073
kuit	-6074
kuta	-6075
lemp	-6076
ling	-6077
maaf	-6078
ohid	-6079
okus	-6080
omas	-6081
omun	-6082
onor	-6083
onot	-6084
oral	-6085
oris	-6086
osil	-6087
osmu	-6088
otek	-6089
otok	-6090
pasi	-6091
peng	-6092
pnya	-6093
sapi	-6094
sipu	-6095
sius	-6096
ucut	-6097
udut	-6098
uksi	-6099
afe	-6100
kup	-6101
oln	-6102
upa	-6103
▁70	-6104
▁82	-6105
▁cd	-6106
▁ot	-6107
ebas	-6108
ebel	-6109
irku	-6110
ismu	-6111
jana	-6112
olak	-6113
paku	-6114
udul	-6115
ulum	-6116
ulur	-6117
umam	-6118
umat	-6119
umis	-6120
umsi	-6121
unis	-6122
urut	-6123
util	-6124
utin	-6125
utir	-6126
utub	-6127
utut	-6128
vari	-6129
veri	-6130
yama	-6131
▁alk	-6132
▁als	-6133
▁apo	-6134
▁arg	-6135
▁asa	-6136
▁asl	-6137
▁bak	-6138
▁bat	-6139
▁blu	-6140
▁bor	-6141
▁bow	-6142
▁bua	-6143
▁cam	-6144
▁cet	-6145
▁dal	-6146
▁dud	-6147
▁duk	-6148
▁eja	-6149
▁esa	-6150
▁fah	-6151
▁fak	-6152
▁fbi	-6153
▁hek	-6154
▁hil	-6155
▁hol	-6156
▁inv	-6157
▁jad	-6158
▁jin	-6159
▁jog	-6160
▁kus	-6161
▁kyi	-6162
▁lab	-6163
▁lak	-6164
▁lid	-6165
▁los	-6166
▁lut	-6167
▁mol	-6168
▁msg	-6169
▁muh	-6170
▁nih	-6171
▁nik	-6172
▁oft	-6173
▁pek	-6174
▁pia	-6175
▁rad	-6176
▁raj	-6177
▁rap	-6178
▁ris	-6179
▁san	-6180
▁tai	-6181
▁tam	-6182
▁tap	-6183
▁tiv	-6184
▁tup	-6185
▁val	-6186
▁yak	-6187
▁yun	-6188
adnya	-6189
ahnya	-6190
akiku	-6191
alagi	-6192
alian	-6193
alimu	-6194
ambur	-6195
amkan	-6196
anget	-6197
anila	-6198
anjil	-6199
kok	-6200
rup	-6201
sep	-6202
tua	-6203
asok	-6204
epak	-6205
etas	-6206
nama	-6207
nasi	-6208
obek	-6209
pula	-6210
tiup	-6211
uaan	-6212
uput	-6213
▁aja	-6214
▁gan	-6215
▁gua	-6216
▁jua	-6217
▁nad	-6218
▁nan	-6219
▁nol	-6220
▁rob	-6221
ahasa	-6222
alamu	-6223
ansis	-6224
antar	-6225
antin	-6226
antum	-6227
anyam	-6228
anyol	-6229
araga	-6230
ariat	-6231
arimu	-6232
asang	-6233
auhan	-6234
aungu	-6235
bukan	-6236
bulan	-6237
cakan	-6238
dadak	-6239
dalam	-6240
edera	-6241
ekati	-6242
ektur	-6243
emuka	-6244
enaga	-6245
engmu	-6246
enguk	-6247
ening	-6248
ental	-6249
epati	-6250
erius	-6251
ertif	-6252
hanya	-6253
hewan	-6254
hythm	-6255
ibusi	-6256
idasi	-6257
ihnya	-6258
ikasi	-6259
inaan	-6260
indai	-6261
ingal	-6262
inkan	-6263
iolin	-6264
irnya	-6265
isasi	-6266
isius	-6267
isnya	-6268
itasi	-6269
itiga	-6270
iuner	-6271
jahat	-6272
junya	-6273
kanak	-6274
kanya	-6275
keped	-6276
lapan	-6277
maran	-6278
murah	-6279
obati	-6280
obong	-6281
occer	-6282
ongku	-6283
onnya	-6284
ontak	-6285
oreng	-6286
otaan	-6287
payan	-6288
perak	-6289
pohon	-6290
rakit	-6291
ranya	-6292
sakan	-6293
tanda	-6294
udung	-6295
ugian	-6296
uhnya	-6297
ukaan	-6298
ukota	-6299
dia	-6300
edi	-6301
buat	-6302
gong	-6303
hent	-6304
ibil	-6305
ilyn	-6306
ogok	-6307
ongs	-6308
ukio	-6309
yong	-6310
▁ont	-6311
▁rev	-6312
▁sia	-6313
abung	-6314
adian	-6315
afkah	-6316
ainya	-6317
ampok	-6318
ampur	-6319
anyut	-6320
aulan	-6321
entan	-6322
entuk	-6323
inium	-6324
ottag	-6325
ukuri	-6326
ulaan	-6327
umpai	-6328
ungut	-6329
untan	-6330
untuk	-6331
untum	-6332
upasi	-6333
urian	-6334
urung	-6335
uskan	-6336
ustri	-6337
wakan	-6338
waktu	-6339
yakah	-6340
yakin	-6341
yanan	-6342
yangi	-6343
yanya	-6344
zalea	-6345
▁632.	-6346
▁8:10	-6347
▁akar	-6348
▁akor	-6349
▁aktr	-6350
▁akui	-6351
▁alum	-6352
▁asin	-6353
▁awan	-6354
▁baja	-6355
▁bata	-6356
▁baya	-6357
▁beer	-6358
▁bell	-6359
▁bery	-6360
▁bete	-6361
▁bibi	-6362
▁biji	-6363
▁cemb	-6364
▁deny	-6365
▁duit	-6366
▁duri	-6367
▁duta	-6368
▁edis	-6369
▁engs	-6370
▁etis	-6371
▁fant	-6372
▁furn	-6373
▁gamb	-6374
▁gate	-6375
▁geng	-6376
▁goda	-6377
▁gond	-6378
▁horm	-6379
▁ilah	-6380
▁jeng	-6381
▁juru	-6382
▁kari	-6383
▁keji	-6384
▁koiz	-6385
▁koko	-6386
▁koma	-6387
▁kuil	-6388
▁laga	-6389
▁lara	-6390
▁lega	-6391
▁leng	-6392
▁lomp	-6393
▁maju	-6394
▁mama	-6395
▁mara	-6396
▁mark	-6397
▁memf	-6398
▁mene	-6399
bab	-6400
nos	-6401
oid	-6402
▁im	-6403
abul	-6404
ajai	-6405
ambu	-6406
edai	-6407
ehat	-6408
ejam	-6409
gaku	-6410
osok	-6411
otot	-6412
peri	-6413
samu	-6414
sika	-6415
ujuh	-6416
▁buj	-6417
▁iya	-6418
▁jab	-6419
▁jaj	-6420
▁sox	-6421
▁wah	-6422
amati	-6423
endah	-6424
entim	-6425
etika	-6426
oktor	-6427
rambu	-6428
urius	-6429
▁antr	-6430
▁camb	-6431
▁ceri	-6432
▁jahe	-6433
▁meri	-6434
▁merk	-6435
▁ming	-6436
▁mini	-6437
▁nara	-6438
▁nasa	-6439
▁nati	-6440
▁ngga	-6441
▁niat	-6442
▁oksi	-6443
▁paku	-6444
▁park	-6445
▁pest	-6446
▁pink	-6447
▁pion	-6448
▁pita	-6449
▁pret	-6450
▁prmu	-6451
▁puar	-6452
▁purn	-6453
▁putr	-6454
▁remb	-6455
▁rupa	-6456
▁samb	-6457
▁sand	-6458
▁sang	-6459
▁sari	-6460
▁sept	-6461
▁seru	-6462
▁sial	-6463
▁sint	-6464
▁soft	-6465
▁stop	-6466
▁tant	-6467
▁tawa	-6468
▁tega	-6469
▁tele	-6470
▁teri	-6471
▁term	-6472
▁tint	-6473
▁unta	-6474
▁ussr	-6475
▁verm	-6476
▁waru	-6477
adaman	-6478
afalan	-6479
ailand	-6480
ajukan	-6481
alapan	-6482
alatan	-6483
amatir	-6484
amping	-6485
anakah	-6486
angkak	-6487
angkok	-6488
aninya	-6489
anspor	-6490
anting	-6491
apalan	-6492
apatan	-6493
apikan	-6494
arahan	-6495
arakan	-6496
argaan	-6497
atoeba	-6498
batnya	-6499
own	-6500
andu	-6501
baga	-6502
batu	-6503
cipr	-6504
duri	-6505
gasi	-6506
ibuk	-6507
ited	-6508
tamu	-6509
▁cnn	-6510
▁oto	-6511
▁red	-6512
▁zom	-6513
akter	-6514
anamu	-6515
apaki	-6516
edisi	-6517
erkat	-6518
otret	-6519
ownlo	-6520
umpit	-6521
▁biob	-6522
▁cowo	-6523
▁giat	-6524
▁hall	-6525
▁kala	-6526
▁kalo	-6527
▁lanc	-6528
▁panj	-6529
▁prin	-6530
▁prku	-6531
▁prob	-6532
▁rabu	-6533
adapan	-6534
ahanan	-6535
asanku	-6536
barkan	-6537
cayaan	-6538
duanya	-6539
durnya	-6540
edakan	-6541
egarmu	-6542
emaran	-6543
ematur	-6544
empuan	-6545
empurn	-6546
enjara	-6547
erakan	-6548
eralah	-6549
erawat	-6550
erjaan	-6551
ewahan	-6552
gainya	-6553
giling	-6554
hattan	-6555
iannya	-6556
ikator	-6557
ilhami	-6558
indung	-6559
inggis	-6560
ingkan	-6561
ington	-6562
inolog	-6563
iranya	-6564
irilah	-6565
istiwa	-6566
kumpul	-6567
lesnya	-6568
liknya	-6569
markan	-6570
matika	-6571
memalu	-6572
minggu	-6573
negara	-6574
odohan	-6575
olakan	-6576
orinya	-6577
orokan	-6578
osikan	-6579
ottawa	-6580
peroni	-6581
preter	-6582
renang	-6583
sangat	-6584
sialan	-6585
sikiat	-6586
takdir	-6587
tannya	-6588
tonton	-6589
uaikan	-6590
ujinya	-6591
ukanku	-6592
ukasia	-6593
umbuku	-6594
ungkan	-6595
ungkap	-6596
ungkuk	-6597
uniaga	-6598
usakan	-6599
sip	-6600
vei	-6601
▁qr	-6602
eduh	-6603
emui	-6604
memb	-6605
siku	-6606
▁1-8	-6607
▁fol	-6608
▁haw	-6609
▁org	-6610
▁pub	-6611
▁via	-6612
inaku	-6613
indas	-6614
sakit	-6615
▁100,	-6616
▁pula	-6617
▁siku	-6618
▁sisa	-6619
▁tump	-6620
akinan	-6621
akuasi	-6622
anggal	-6623
anggap	-6624
anggur	-6625
embang	-6626
epatan	-6627
ernaan	-6628
ijakan	-6629
impati	-6630
kataku	-6631
siakan	-6632
usukan	-6633
witter	-6634
▁1-800	-6635
▁1945.	-6636
▁1992.	-6637
▁2003.	-6638
▁5.000	-6639
▁agnos	-6640
▁agust	-6641
▁akrab	-6642
▁aksen	-6643
▁akses	-6644
▁alang	-6645
▁arsit	-6646
▁asyik	-6647
▁badak	-6648
▁bahan	-6649
▁baris	-6650
▁batal	-6651
▁benda	-6652
▁beral	-6653
▁berka	-6654
▁berke	-6655
▁berku	-6656
▁beruk	-6657
▁bikin	-6658
▁bilam	-6659
▁blong	-6660
▁bonus	-6661
▁bosmu	-6662
▁botmu	-6663
▁butir	-6664
▁capai	-6665
▁cuman	-6666
▁dadar	-6667
▁dansa	-6668
▁darat	-6669
▁deter	-6670
▁diber	-6671
▁dicat	-6672
▁dieks	-6673
▁diinv	-6674
▁dijeb	-6675
▁diteg	-6676
▁efisi	-6677
▁ejaan	-6678
▁embar	-6679
▁fajar	-6680
▁filsu	-6681
▁ganja	-6682
▁gegar	-6683
▁gerga	-6684
▁hamps	-6685
▁henti	-6686
▁hoaks	-6687
▁idemu	-6688
▁jalur	-6689
▁jaman	-6690
▁jarum	-6691
▁jeans	-6692
▁jijik	-6693
▁judul	-6694
▁karun	-6695
▁kebal	-6696
▁kecem	-6697
▁kehuj	-6698
▁keluh	-6699
afal	-6700
edar	-6701
edih	-6702
hire	-6703
inju	-6704
▁abu	-6705
▁hop	-6706
▁med	-6707
acuni	-6708
anjan	-6709
anjat	-6710
apian	-6711
aviol	-6712
ianat	-6713
ikmat	-6714
isian	-6715
odaku	-6716
uduki	-6717
▁ajak	-6718
▁feta	-6719
▁ikat	-6720
▁laci	-6721
▁naga	-6722
▁punk	-6723
▁wals	-6724
angkai	-6725
angkas	-6726
dengar	-6727
eraian	-6728
lankan	-6729
ternya	-6730
ulusan	-6731
▁aires	-6732
▁cukur	-6733
▁desas	-6734
▁dibet	-6735
▁gawai	-6736
▁iklan	-6737
▁karet	-6738
▁keman	-6739
▁kemar	-6740
▁kepem	-6741
▁keper	-6742
▁kepol	-6743
▁keruh	-6744
▁kerum	-6745
▁kesan	-6746
▁kesel	-6747
▁keset	-6748
▁ketek	-6749
▁ketua	-6750
▁kilom	-6751
▁krist	-6752
▁kuemu	-6753
▁lalat	-6754
▁licin	-6755
▁macan	-6756
▁makar	-6757
▁malan	-6758
▁maret	-6759
▁marga	-6760
▁maria	-6761
▁masin	-6762
▁mayat	-6763
▁mebel	-6764
▁memat	-6765
▁memij	-6766
▁menci	-6767
▁merek	-6768
▁meres	-6769
▁mertu	-6770
▁mulus	-6771
▁nafas	-6772
▁napol	-6773
▁ngapa	-6774
▁otodi	-6775
▁padam	-6776
▁pakan	-6777
▁paran	-6778
▁payah	-6779
▁pekat	-6780
▁pemro	-6781
▁perca	-6782
▁perju	-6783
▁perti	-6784
▁piala	-6785
▁pihak	-6786
▁posmu	-6787
▁pucuk	-6788
▁punah	-6789
▁racun	-6790
▁raket	-6791
▁rekor	-6792
▁robot	-6793
▁rokku	-6794
▁rumus	-6795
▁rutin	-6796
▁salon	-6797
▁sampo	-6798
▁sangk	-6799
acuh	-6800
akna	-6801
▁190	-6802
▁lip	-6803
aikat	-6804
arahi	-6805
aruan	-6806
bapak	-6807
▁ajar	-6808
▁alja	-6809
▁asam	-6810
▁duda	-6811
▁guin	-6812
▁isti	-6813
▁lips	-6814
▁peso	-6815
▁taxi	-6816
▁ukul	-6817
▁urat	-6818
▁yuan	-6819
anjian	-6820
anyian	-6821
dakian	-6822
tinggi	-6823
▁1903.	-6824
▁bakat	-6825
▁kubus	-6826
▁panah	-6827
▁pesim	-6828
▁pokok	-6829
▁pudel	-6830
▁sebab	-6831
▁sebut	-6832
▁sekam	-6833
▁sekop	-6834
▁semak	-6835
▁semir	-6836
▁semut	-6837
▁senap	-6838
▁senar	-6839
▁senja	-6840
▁seram	-6841
▁serat	-6842
▁serba	-6843
▁serul	-6844
▁setan	-6845
▁siani	-6846
▁sipil	-6847
▁sipir	-6848
▁skept	-6849
▁studi	-6850
▁sumat	-6851
▁suram	-6852
▁surel	-6853
▁suruh	-6854
▁tegal	-6855
▁telor	-6856
▁teluk	-6857
▁temui	-6858
▁terin	-6859
▁texas	-6860
▁tigab	-6861
▁tiong	-6862
▁tiram	-6863
▁tokoh	-6864
▁tusuk	-6865
▁venus	-6866
▁wajik	-6867
▁yukio	-6868
abkanku	-6869
adaikan	-6870
ahirkan	-6871
ajaiban	-6872
akainya	-6873
akutiku	-6874
akutkan	-6875
alangan	-6876
alistis	-6877
alutnya	-6878
ampakan	-6879
ancarai	-6880
anianmu	-6881
antakan	-6882
apusnya	-6883
baiknya	-6884
bangkan	-6885
ciprati	-6886
cucunya	-6887
ebarkan	-6888
elangan	-6889
empuran	-6890
emuanya	-6891
enalkan	-6892
enengan	-6893
engerti	-6894
eraikan	-6895
erangan	-6896
erjaiku	-6897
erjalah	-6898
erjanya	-6899
ble	-6900
▁11	-6901
▁13	-6902
▁22	-6903
▁26	-6904
ecak	-6905
kenc	-6906
ojok	-6907
pagi	-6908
rata	-6909
▁gaz	-6910
▁sod	-6911
impin	-6912
▁119.	-6913
▁bego	-6914
▁flor	-6915
▁hulu	-6916
▁liar	-6917
▁rata	-6918
adiran	-6919
encang	-6920
hambat	-6921
katimu	-6922
pulang	-6923
rabble	-6924
truksi	-6925
usahan	-6926
usiaan	-6927
▁bener	-6928
▁hampa	-6929
▁kedai	-6930
▁manja	-6931
▁optim	-6932
▁persa	-6933
▁pojok	-6934
▁talas	-6935
agialah	-6936
anakkan	-6937
bukunya	-6938
elaskan	-6939
ertakmu	-6940
etangga	-6941
ewatkan	-6942
inganya	-6943
inggian	-6944
inggung	-6945
irausah	-6946
isannya	-6947
jarakan	-6948
kanakan	-6949
kasinya	-6950
ketsamu	-6951
kirakan	-6952
maafkan	-6953
mabukan	-6954
makasih	-6955
mbangan	-6956
menerus	-6957
ngapain	-6958
ngomong	-6959
odiakmu	-6960
ohidrat	-6961
onorkan	-6962
ontakmu	-6963
parunya	-6964
singkan	-6965
soalnya	-6966
suratmu	-6967
tasinya	-6968
tentara	-6969
truktur	-6970
uangnya	-6971
ulurkan	-6972
unangan	-6973
ungkawa	-6974
ungkiri	-6975
usahkan	-6976
yamaran	-6977
▁10.000	-6978
▁amarah	-6979
▁anggun	-6980
▁anting	-6981
▁apanya	-6982
▁asalku	-6983
▁azalea	-6984
▁baikal	-6985
▁bankir	-6986
▁bareng	-6987
▁bawaan	-6988
▁bawang	-6989
▁begini	-6990
▁belaka	-6991
▁berasa	-6992
▁berbau	-6993
▁bereks	-6994
▁berhak	-6995
▁berhal	-6996
▁berima	-6997
▁berinv	-6998
▁berkey	-6999
gej	-7000
ompl	-7001
ware	-7002
▁kug	-7003
ahami	-7004
kupon	-7005
ompol	-7006
▁alih	-7007
▁cuti	-7008
▁dipl	-7009
▁guna	-7010
▁kain	-7011
andaan	-7012
asilah	-7013
gejala	-7014
ilihan	-7015
ohonan	-7016
onardo	-7017
▁dipen	-7018
▁diseb	-7019
▁diset	-7020
▁ganda	-7021
▁harpa	-7022
▁janda	-7023
▁jauhi	-7024
▁kuasa	-7025
▁nekat	-7026
▁radha	-7027
▁stres	-7028
▁tirai	-7029
amankan	-7030
apkanmu	-7031
ebutkan	-7032
emputmu	-7033
impikan	-7034
impulan	-7035
ompleks	-7036
ucukkan	-7037
▁bergen	-7038
▁berlin	-7039
▁berpap	-7040
▁berpen	-7041
▁berpid	-7042
▁bersik	-7043
▁bertel	-7044
▁bibiku	-7045
▁bidang	-7046
▁bisnya	-7047
▁buatan	-7048
▁buenos	-7049
▁cedera	-7050
▁cerdik	-7051
▁contoh	-7052
▁dahaga	-7053
▁darwin	-7054
▁desamu	-7055
▁diatur	-7056
▁diberi	-7057
▁dicium	-7058
▁difoto	-7059
▁dikali	-7060
▁dimunt	-7061
▁dipred	-7062
▁disaat	-7063
▁disamp	-7064
▁disemb	-7065
▁disitu	-7066
▁ditunt	-7067
▁diubah	-7068
▁diveri	-7069
▁fahren	-7070
▁fantas	-7071
▁folder	-7072
▁fungsi	-7073
▁gading	-7074
▁ganggu	-7075
▁ganjil	-7076
▁gaunmu	-7077
▁gayamu	-7078
▁geland	-7079
▁guinea	-7080
▁hallow	-7081
▁harian	-7082
▁hatiku	-7083
▁hawaii	-7084
▁hiking	-7085
▁hormat	-7086
▁isinya	-7087
▁izinku	-7088
▁izinmu	-7089
▁jamnya	-7090
▁jantan	-7091
▁joging	-7092
▁kabuki	-7093
▁kadoku	-7094
▁kalung	-7095
▁kambuh	-7096
▁kedalu	-7097
▁kempes	-7098
▁kenari	-7099
200	-7100
hof	-7101
dney	-7102
ipas	-7103
▁hip	-7104
▁vih	-7105
▁vul	-7106
balik	-7107
hutan	-7108
ipkan	-7109
odohi	-7110
osimu	-7111
rumah	-7112
▁$200	-7113
▁arak	-7114
▁esai	-7115
▁haji	-7116
▁jala	-7117
▁pola	-7118
▁saks	-7119
erjang	-7120
tempat	-7121
uguran	-7122
▁bayar	-7123
▁bufet	-7124
▁defin	-7125
▁intol	-7126
▁kabel	-7127
▁kipas	-7128
▁krama	-7129
▁layar	-7130
▁pelip	-7131
▁pembi	-7132
▁petak	-7133
▁piama	-7134
▁rambu	-7135
▁titik	-7136
amenhof	-7137
onggong	-7138
▁buruan	-7139
▁daring	-7140
▁kabari	-7141
▁kentut	-7142
▁kepanj	-7143
▁kerena	-7144
▁kesana	-7145
▁kesemb	-7146
▁kesini	-7147
▁khitan	-7148
▁kolera	-7149
▁kotamu	-7150
▁krisis	-7151
▁kuberm	-7152
▁kubisa	-7153
▁kucari	-7154
▁kudaku	-7155
▁ladang	-7156
▁lakban	-7157
▁lembah	-7158
▁lembut	-7159
▁lintah	-7160
▁loncat	-7161
▁maafmu	-7162
▁maling	-7163
▁mancur	-7164
▁mangga	-7165
▁matiin	-7166
▁melanc	-7167
▁melemp	-7168
▁mempek	-7169
▁memuat	-7170
▁memula	-7171
▁mencek	-7172
▁mencuk	-7173
▁meneng	-7174
▁mengej	-7175
▁mengga	-7176
▁mengik	-7177
▁mengun	-7178
▁mening	-7179
▁meniup	-7180
▁menjin	-7181
▁mental	-7182
▁menyia	-7183
▁mereda	-7184
▁merent	-7185
▁miliku	-7186
▁muhamm	-7187
▁murung	-7188
▁musisi	-7189
▁musnah	-7190
▁nadiku	-7191
▁naples	-7192
▁negera	-7193
▁negosi	-7194
▁oranye	-7195
▁panama	-7196
▁pasien	-7197
▁paskah	-7198
▁pelana	-7199
aime	-7200
ekusi	-7201
ersih	-7202
unduh	-7203
usius	-7204
▁acuh	-7205
▁budi	-7206
▁kail	-7207
▁roda	-7208
▁tsun	-7209
▁tuba	-7210
awasan	-7211
bersih	-7212
ekanya	-7213
uruhan	-7214
▁esnya	-7215
▁guruh	-7216
▁koala	-7217
▁lukis	-7218
▁pedih	-7219
▁tasku	-7220
▁topik	-7221
engkapi	-7222
entasan	-7223
epaskan	-7224
galanya	-7225
▁awakmu	-7226
▁beliau	-7227
▁jingga	-7228
▁ngerti	-7229
▁nyanyi	-7230
▁peluru	-7231
▁penaku	-7232
▁penamu	-7233
▁penata	-7234
▁penemu	-7235
▁pengac	-7236
▁penget	-7237
▁penguc	-7238
▁pengum	-7239
▁penyel	-7240
▁perint	-7241
▁petani	-7242
▁piagam	-7243
▁polusi	-7244
▁punyai	-7245
▁puteri	-7246
▁radium	-7247
▁realis	-7248
▁reggae	-7249
▁resesi	-7250
▁resiko	-7251
▁respon	-7252
▁risiko	-7253
▁sakura	-7254
▁sandwi	-7255
▁santun	-7256
▁sediak	-7257
▁segala	-7258
▁sekaki	-7259
▁sekaya	-7260
▁selada	-7261
▁sempat	-7262
▁semuda	-7263
▁seneng	-7264
▁sepagi	-7265
▁serang	-7266
▁serbuk	-7267
▁sesama	-7268
▁sesuka	-7269
▁setahu	-7270
▁spidol	-7271
▁stabil	-7272
▁suasan	-7273
▁suntuk	-7274
▁tabiat	-7275
▁tanduk	-7276
▁tebang	-7277
▁teknis	-7278
▁temani	-7279
▁tempel	-7280
▁temper	-7281
▁tenaga	-7282
▁tepian	-7283
▁terapi	-7284
▁terper	-7285
▁tertib	-7286
▁tertua	-7287
▁terung	-7288
▁tindak	-7289
▁tipuan	-7290
▁tiupan	-7291
▁topimu	-7292
▁tripel	-7293
▁tulisi	-7294
▁uangmu	-7295
▁united	-7296
▁valent	-7297
▁vanila	-7298
▁yodium	-7299
ester	-7300
nodai	-7301
rangi	-7302
ratus	-7303
semak	-7304
tuamu	-7305
▁lumb	-7306
▁pond	-7307
estasi	-7308
oritas	-7309
resiko	-7310
riorit	-7311
▁bayak	-7312
▁gerah	-7313
▁gerak	-7314
▁mulsa	-7315
▁nyala	-7316
▁pakar	-7317
▁parut	-7318
▁tvnya	-7319
akarnya	-7320
aliknya	-7321
alonkan	-7322
impinan	-7323
tarikan	-7324
▁arahku	-7325
▁bandar	-7326
▁bandel	-7327
▁beriak	-7328
▁bermin	-7329
▁dagang	-7330
▁dicoba	-7331
▁fakult	-7332
▁hobimu	-7333
▁kudamu	-7334
▁lokasi	-7335
▁medali	-7336
▁pandan	-7337
▁pencip	-7338
▁persen	-7339
▁pianis	-7340
▁pondok	-7341
▁semula	-7342
▁tepati	-7343
▁timnya	-7344
adiahkan	-7345
adikanku	-7346
ahabatan	-7347
alingkan	-7348
amatinya	-7349
angatkan	-7350
angetkan	-7351
angganan	-7352
angkauan	-7353
anyutkan	-7354
endingin	-7355
endongku	-7356
engkaran	-7357
enjangan	-7358
entingan	-7359
hiraukan	-7360
ikroskop	-7361
ikutinya	-7362
ilangkan	-7363
ilingual	-7364
impangan	-7365
ingannya	-7366
jalankan	-7367
lemparan	-7368
oberinya	-7369
ohongiku	-7370
oncongan	-7371
ongsoran	-7372
ontarkan	-7373
sembunyi	-7374
uarkanmu	-7375
ukuranmu	-7376
ularitas	-7377
ungutlah	-7378
untukkan	-7379
yaratkan	-7380
▁abaikan	-7381
▁agustus	-7382
▁akankah	-7383
▁akuntan	-7384
▁akurasi	-7385
▁anehnya	-7386
▁apalagi	-7387
▁arahnya	-7388
▁atasnya	-7389
▁ataupun	-7390
▁atlanta	-7391
▁baginya	-7392
▁bangkok	-7393
▁banknya	-7394
▁barisan	-7395
▁barusan	-7396
▁bawalah	-7397
▁belanda	-7398
▁belasan	-7399
-3.	-7400
63.	-7401
cucu	-7402
ucks	-7403
▁197	-7404
▁198	-7405
▁sms	-7406
ernur	-7407
pelan	-7408
▁peja	-7409
▁priv	-7410
elawan	-7411
hiasan	-7412
ikapmu	-7413
rushch	-7414
ualian	-7415
uaskan	-7416
▁1963.	-7417
▁1974.	-7418
▁1989.	-7419
▁asist	-7420
▁gulat	-7421
▁kapur	-7422
▁kasur	-7423
▁kolib	-7424
▁penyu	-7425
▁sabit	-7426
▁sabun	-7427
▁sunyi	-7428
arbucks	-7429
lihatin	-7430
▁dadaku	-7431
▁gorden	-7432
▁ngarai	-7433
▁pemaaf	-7434
▁penjum	-7435
▁pujian	-7436
▁warung	-7437
akaannya	-7438
ernihkan	-7439
rushchev	-7440
▁artikel	-7441
▁asalkan	-7442
▁beradab	-7443
▁berakit	-7444
▁beratus	-7445
▁berawan	-7446
▁bercerm	-7447
▁berdamp	-7448
▁berduka	-7449
▁berhari	-7450
▁berjani	-7451
▁berlain	-7452
▁bermata	-7453
▁bermula	-7454
▁bertepi	-7455
▁bervari	-7456
▁biarpun	-7457
▁bisakan	-7458
▁bowling	-7459
▁buahnya	-7460
▁buatkan	-7461
▁buatlah	-7462
▁bukakan	-7463
▁bukalah	-7464
▁cambrid	-7465
▁camilan	-7466
▁cemburu	-7467
▁depanmu	-7468
▁diajari	-7469
▁diamlah	-7470
▁dibalas	-7471
▁dibawah	-7472
▁dibelah	-7473
▁digapai	-7474
▁dikenal	-7475
▁dikulum	-7476
▁dikunci	-7477
▁dilihat	-7478
▁dilukis	-7479
▁dinasti	-7480
▁dipakai	-7481
▁dipesan	-7482
▁dirumah	-7483
▁disukai	-7484
▁ditahan	-7485
▁ditebak	-7486
▁ditolak	-7487
▁ditunda	-7488
▁dudukmu	-7489
▁efeknya	-7490
▁efektif	-7491
▁efisien	-7492
▁emasnya	-7493
▁enaknya	-7494
▁fotonya	-7495
▁fransis	-7496
▁gantung	-7497
▁gembala	-7498
▁gitarku	-7499
▁80	-7500
unch	-7501
▁10.	-7502
▁mng	-7503
▁oak	-7504
derak	-7505
keras	-7506
ontin	-7507
uncit	-7508
uncur	-7509
▁cook	-7510
▁jeli	-7511
▁linc	-7512
▁syal	-7513
▁ulat	-7514
endawa	-7515
formal	-7516
jariku	-7517
nambah	-7518
oghurt	-7519
undaan	-7520
▁betah	-7521
▁didik	-7522
▁inter	-7523
▁italy	-7524
▁jahat	-7525
▁negri	-7526
▁obeng	-7527
▁sinis	-7528
▁sudut	-7529
▁supir	-7530
▁tunda	-7531
▁umpet	-7532
againya	-7533
dayakan	-7534
emahnya	-7535
kalimat	-7536
▁buncit	-7537
▁capung	-7538
▁cookie	-7539
▁crunch	-7540
▁gemari	-7541
▁kubeli	-7542
▁oblong	-7543
▁pelaut	-7544
▁pidana	-7545
▁simbol	-7546
bunganya	-7547
ompetisi	-7548
pertanya	-7549
▁bacanya	-7550
▁bersila	-7551
▁dihalui	-7552
▁gitarmu	-7553
▁hakikat	-7554
▁hidupmu	-7555
▁hiperak	-7556
▁hobinya	-7557
▁hotelku	-7558
▁ibukota	-7559
▁ijinkan	-7560
▁ikutlah	-7561
▁jadinya	-7562
▁jajahan	-7563
▁jalanku	-7564
▁jalanmu	-7565
▁jaminan	-7566
▁jantung	-7567
▁jawabmu	-7568
▁jenghis	-7569
▁jengkal	-7570
▁kambing	-7571
▁kamusku	-7572
▁kamusmu	-7573
▁kancing	-7574
▁kandung	-7575
▁karibku	-7576
▁kayunya	-7577
▁kecilku	-7578
▁keingin	-7579
▁kemauan	-7580
▁kembang	-7581
▁kencang	-7582
▁kolibri	-7583
▁koranku	-7584
▁koreksi	-7585
▁korsika	-7586
▁kuantum	-7587
▁kuburan	-7588
▁kukunya	-7589
▁kulitmu	-7590
▁kurangi	-7591
▁lagilah	-7592
▁lancang	-7593
▁langkah	-7594
▁layanan	-7595
▁lincoln	-7596
▁liontin	-7597
▁loncati	-7598
▁lututmu	-7599
▁35	-7600
▁5%	-7601
▁83	-7602
000.	-7603
▁180	-7604
▁wow	-7605
enyap	-7606
imuti	-7607
kalau	-7608
ognya	-7609
putar	-7610
sayur	-7611
▁839.	-7612
▁ahli	-7613
▁daun	-7614
▁tato	-7615
▁tips	-7616
▁tuna	-7617
ediaan	-7618
fungsi	-7619
planet	-7620
▁bayam	-7621
▁gugur	-7622
▁lomba	-7623
▁media	-7624
▁paket	-7625
▁strok	-7626
▁tesis	-7627
▁tupai	-7628
300000.	-7629
iharaan	-7630
ingkuhi	-7631
obohkan	-7632
orengan	-7633
▁akalmu	-7634
▁brasil	-7635
▁duluan	-7636
▁gurita	-7637
▁guruku	-7638
▁katuju	-7639
▁kumpul	-7640
▁lenyap	-7641
▁perger	-7642
▁status	-7643
▁teliti	-7644
ilingimu	-7645
▁asalnya	-7646
▁berfoto	-7647
▁blognya	-7648
▁cetakan	-7649
▁dahinya	-7650
▁kasetku	-7651
▁konteks	-7652
▁kuminta	-7653
▁ledakan	-7654
▁mahyong	-7655
▁mainkan	-7656
▁malammu	-7657
▁mandiri	-7658
▁manfaat	-7659
▁manikam	-7660
▁mayones	-7661
▁melamar	-7662
▁melawan	-7663
▁melemah	-7664
▁meletak	-7665
▁melipat	-7666
▁memadam	-7667
▁memaksa	-7668
▁membeku	-7669
▁membela	-7670
▁membudi	-7671
▁memfoto	-7672
▁memijat	-7673
▁mempert	-7674
▁memutih	-7675
▁memutus	-7676
▁menanak	-7677
▁menawar	-7678
▁mendobr	-7679
▁mengada	-7680
▁mengeja	-7681
▁menghal	-7682
▁mengins	-7683
▁mengons	-7684
▁menitan	-7685
▁menyapu	-7686
▁menyewa	-7687
▁menying	-7688
▁merayap	-7689
▁merdeka	-7690
▁merebut	-7691
▁merobek	-7692
▁meyakin	-7693
▁militer	-7694
▁mimpiku	-7695
▁mulutku	-7696
▁muridku	-7697
▁naikkan	-7698
▁nations	-7699
nyi	-7700
anse	-7701
burg	-7702
topi	-7703
▁bui	-7704
▁thr	-7705
▁tht	-7706
raina	-7707
turut	-7708
▁abad	-7709
▁klik	-7710
▁peti	-7711
▁rans	-7712
▁rein	-7713
aksian	-7714
entina	-7715
fikasi	-7716
sampah	-7717
tolong	-7718
▁8.30.	-7719
▁bekal	-7720
▁liter	-7721
▁monro	-7722
▁nilai	-7723
▁nyali	-7724
▁nyeri	-7725
▁pecat	-7726
▁saksi	-7727
▁tunai	-7728
▁vinci	-7729
▁wangi	-7730
ewaskan	-7731
▁bibimu	-7732
▁burger	-7733
▁dasimu	-7734
▁gajiku	-7735
▁kekuat	-7736
▁mentor	-7737
▁monroe	-7738
▁percak	-7739
▁undian	-7740
adenburg	-7741
▁angeles	-7742
▁benakmu	-7743
▁beracun	-7744
▁bibinya	-7745
▁dikejar	-7746
▁dirusak	-7747
▁jarinya	-7748
▁jongkok	-7749
▁koperku	-7750
▁madunya	-7751
▁mandela	-7752
▁memetik	-7753
▁menebus	-7754
▁nelayan	-7755
▁ngengat	-7756
▁nomormu	-7757
▁numpang	-7758
▁oksigen	-7759
▁ontario	-7760
▁pacarmu	-7761
▁panduan	-7762
▁pangkat	-7763
▁pasaran	-7764
▁pegulat	-7765
▁pejabat	-7766
▁pelangi	-7767
▁pelukan	-7768
▁pemberi	-7769
▁pemutar	-7770
▁penanak	-7771
▁pencuci	-7772
▁pendiam	-7773
▁penutup	-7774
▁percuma	-7775
▁perdana	-7776
▁perihal	-7777
▁periksa	-7778
▁persegi	-7779
▁pesanku	-7780
▁petanya	-7781
▁petinju	-7782
▁pincang	-7783
▁pinggir	-7784
▁privasi	-7785
▁psikiat	-7786
▁punyamu	-7787
▁putriku	-7788
▁ramalan	-7789
▁rangkum	-7790
▁reinkar	-7791
▁reminya	-7792
▁sabaran	-7793
▁saksama	-7794
▁salahmu	-7795
▁saranmu	-7796
▁sarjana	-7797
▁satelit	-7798
▁satunya	-7799
orge	-7800
▁29.	-7801
▁42.	-7802
▁bei	-7803
eptil	-7804
koper	-7805
otori	-7806
razil	-7807
warsa	-7808
▁drum	-7809
▁geor	-7810
▁jurn	-7811
▁muti	-7812
▁oslo	-7813
▁ursa	-7814
erbuat	-7815
handuk	-7816
karena	-7817
mailku	-7818
▁1.000	-7819
▁balai	-7820
▁dosis	-7821
▁drama	-7822
▁dungu	-7823
▁kokoh	-7824
▁lemon	-7825
▁malay	-7826
▁metal	-7827
▁patut	-7828
▁pecah	-7829
▁saldo	-7830
▁sosis	-7831
▁tekuk	-7832
▁tenda	-7833
▁tikar	-7834
▁urusi	-7835
▁wajib	-7836
▁bomnya	-7837
▁brazil	-7838
▁cender	-7839
▁dallas	-7840
▁dukung	-7841
▁eksist	-7842
▁ekspor	-7843
▁george	-7844
▁gorila	-7845
▁karbon	-7846
▁reptil	-7847
▁sakumu	-7848
embuskan	-7849
muridnya	-7850
▁ayamnya	-7851
▁balapan	-7852
▁balasan	-7853
▁bedanya	-7854
▁beijing	-7855
▁ditikam	-7856
▁georgia	-7857
▁infeksi	-7858
▁kutemui	-7859
▁mutiara	-7860
▁pasokan	-7861
▁penjaga	-7862
▁sayangi	-7863
▁sebagus	-7864
▁seburuk	-7865
▁seember	-7866
▁seindah	-7867
▁sejenak	-7868
▁sejenis	-7869
▁sekadar	-7870
▁sekilas	-7871
▁sekotak	-7872
▁selusin	-7873
▁semudah	-7874
▁senilai	-7875
▁sepakat	-7876
▁sesehat	-7877
▁sesulit	-7878
▁sesungg	-7879
▁sikapmu	-7880
▁situlah	-7881
▁sodanya	-7882
▁suamimu	-7883
▁suaramu	-7884
▁suhunya	-7885
▁sumatra	-7886
▁sungkan	-7887
▁suratku	-7888
▁surelku	-7889
▁tahanan	-7890
▁tahukan	-7891
▁tanaman	-7892
▁tendang	-7893
▁terbaru	-7894
▁tercium	-7895
▁terdiri	-7896
▁tergila	-7897
▁terikat	-7898
▁terkaya	-7899
pria	-7900
▁ori	-7901
injau	-7902
onial	-7903
osial	-7904
renia	-7905
▁hoki	-7906
▁nabi	-7907
▁pahl	-7908
▁skiz	-7909
▁skot	-7910
▁unik	-7911
inspir	-7912
▁datar	-7913
▁debuk	-7914
▁emosi	-7915
▁entri	-7916
▁freku	-7917
▁galon	-7918
▁hakim	-7919
▁jahit	-7920
▁mayor	-7921
▁nanas	-7922
▁opera	-7923
▁pahit	-7924
▁upaya	-7925
ofrenia	-7926
usinasi	-7927
▁50.000	-7928
▁curang	-7929
▁galeri	-7930
▁kelabu	-7931
▁keller	-7932
▁lembap	-7933
▁lembur	-7934
▁otakmu	-7935
▁sosial	-7936
▁tipeku	-7937
▁tumpah	-7938
tetangga	-7939
▁bacakan	-7940
▁bangkai	-7941
▁bibirmu	-7942
a	-7943
▁	-7944
n	-7945
i	-7946
e	-7947
k	-7948
u	-7949
m	-7950
t	-7951
r	-7952
s	-7953
g	-7954
d	-7955
.	-7956
l	-7957
b	-7958
p	-7959
h	-7960
o	-7961
y	-7962
j	-7963
?	-7964
c	-7965
w	-7966
-	-7967
,	-7968
f	-7969
!	-7970
v	-7971
"	-7972
0	-7973
2	-7974
1	-7975
3	-7976
z	-7977
8	-7978
9	-7979
5	-7980
6	-7981
:	-7982
4	-7983
x	-7984
'	-7985
7	-7986
/	-7987
$	-7988
%	-7989
(	-7990
)	-7991
&	-7992
+	-7993
;	-7994
q	-7995
°	-7996
